/**
  ******************************************************************************
  * @file    network_3_data_params.c
  * @author  AST Embedded Analytics Research Platform
  * @date    2026-06-26T03:30:20+0800
  * @brief   AI Tool Automatic Code Generator for Embedded NN computing
  ******************************************************************************
  * Copyright (c) 2026 STMicroelectronics.
  * All rights reserved.
  *
  * This software is licensed under terms that can be found in the LICENSE file
  * in the root directory of this software component.
  * If no LICENSE file comes with this software, it is provided AS-IS.
  ******************************************************************************
  */

#include "network_3_data_params.h"


/**  Activations Section  ****************************************************/
ai_handle g_network_3_activations_table[1 + 2] = {
  AI_HANDLE_PTR(AI_MAGIC_MARKER),
  AI_HANDLE_PTR(NULL),
  AI_HANDLE_PTR(AI_MAGIC_MARKER),
};




/**  Weights Section  ********************************************************/
AI_ALIGNED(32)
const ai_u64 s_network_3_weights_array_u64[15299] = {
  0xbde407a03e8fa5dcU, 0x3dae2bb1bda2fcf7U, 0xbce274c43e12fa5aU, 0xbd03629b3de38792U,
  0x3d83a87b3d0a9673U, 0x3dd765fcbd5f4e5fU, 0x3c1a08153e247a11U, 0xbe29dceb3e3a3500U,
  0xbe18a0ca3d8d96c0U, 0xbd8adfd33dabb5faU, 0xbd2ca3853e47e029U, 0xbd81af4cbdb939d5U,
  0x3dcbe5423e809fb2U, 0xbd1855ebbc5b28a1U, 0xbd98becb3dd99a77U, 0xbc0170253df1786dU,
  0x3e1109723dfbb8e5U, 0x3c6aaf93bd709c7fU, 0xbd4527fa3e1a2601U, 0xbd3e0d61bdffc37eU,
  0xbd672a823dec098dU, 0xbe1da9213db1c1cdU, 0x3e06361dbcd05d72U, 0xbd440cb03d024c5aU,
  0xbe1cd498bc255e25U, 0xbe0e116a3da34b36U, 0x3c84a4eabd3836ebU, 0xbdd55f1f3e3959b9U,
  0xbd605a1b3d8ac8a6U, 0xbdaeb57fbcbd8a78U, 0xbd6c2cb63dd41267U, 0xbd5295cdbd3c6ce3U,
  0xbde46c1c3e9584d0U, 0x3da5368a3e97a842U, 0x3e0a5c123dc0f609U, 0x3d980bf6bd232babU,
  0x3e20b6883d8ecc43U, 0xbe0670dbbd14052bU, 0x3e1417ecbb0eeca0U, 0xbdb1ceaebcd0f8a1U,
  0x3e2a673bbdd92221U, 0x3e3cdcafbc9f10a1U, 0xbd4083bd3cf3fa01U, 0xbc549a9b3dd56334U,
  0x3e010089bd8df283U, 0xbdd1fb9e3e90d542U, 0xbe1a4f3e3d99833aU, 0x3e03765cbcd37731U,
  0x3a15f24e3e5f0231U, 0xbd578cbd3dfd9cb7U, 0xbdd286e3bd8a6321U, 0xbe8a58d8bd3b62d4U,
  0x3d8c4d823da880e4U, 0x3e24fd093d155a9eU, 0xbea3bf54bdd6fd93U, 0x3d0b48bb3e07a149U,
  0x3db7d75b3da9d896U, 0xbe43ab693dd13944U, 0xbe0b3e5a3d30cfe8U, 0x3d07e4d23d8365b6U,
  0x3d904de1bde68c56U, 0x3e7b30393e3424faU, 0x3dc4cbe83de8410fU, 0xbd4ee772bce193adU,
  0x3dd3966cbd141613U, 0xbe5008babd6ee922U, 0xbcebee733e192a38U, 0x3dd8b6fd3e5a33a6U,
  0x3d0cc2f9bd9e26faU, 0xbde5aef13e1b25c5U, 0x39a270543e5d6902U, 0x3c89e23e3e3929c3U,
  0xbe24c64e3e2b3daaU, 0x3dc48240bd50dd6aU, 0xbd886354bc802e94U, 0xbe1a0e093da85015U,
  0x3dc269ac3e1fe3f3U, 0xbe2c945bbd09b2cbU, 0xbe2a2bae3c958dafU, 0xbdd44f103ca1f591U,
  0xbc658dbabca1d463U, 0xbd0bef593d941bb9U, 0x3de1af413da8f2c2U, 0xbe1c58c4bdd35b17U,
  0x3dfabe37bd8516f2U, 0xbdca3ce53e40df5fU, 0xbe8530ac3de227d6U, 0xbd295491bc951878U,
  0x3c87d4213c53569fU, 0xbeaa4a3bbe144413U, 0x3da97d833e9348c5U, 0xbd4f31413d0e2618U,
  0x3d9b85babdb93b05U, 0xbdff4b193e462cccU, 0xbd2551023da8dc31U, 0xbe178b00be42aeb3U,
  0xbe2f70cbbcc93329U, 0xbd349e2abe37494cU, 0xbdb9aa2abd8d9ad6U, 0xbda69f753d8ddf57U,
  0xbe3f89913d914be6U, 0x3deb88fbbca6cf32U, 0xbe44badcbd5fd8a5U, 0xbb7b5a9ebd682a26U,
  0x3d106d94bdb83aacU, 0x3d44fbc5bdd33a2eU, 0xbe2e0fc03dccda68U, 0xbb8923d8be399a4aU,
  0x3c30bf563d571aa4U, 0xbe38078bbcf50a49U, 0xbd21c84c3daf04fcU, 0x3d88a650bcfa5c99U,
  0xbd1d4d90bdf1b001U, 0xbd61564cbdfb8026U, 0xbdeebe8b3c4aa1fcU, 0xbec746fcbd0eac6bU,
  0x3e1bbc41bd98463dU, 0x3d3c9198be147bd9U, 0xbebe1d043dcac321U, 0x3d8e6ba5be80c33fU,
  0xbe3d4c823c826d1bU, 0xbe2f6a523d8ccb0eU, 0x3e1532473dc7f63aU, 0x3ca13edabdefc0d1U,
  0x3dc8aee6be6ba585U, 0xbda5d0fc3e2c1a79U, 0xbe2964b13d87fc39U, 0xbe5b9948be498f7dU,
  0xbe1d831c3c68cfe4U, 0x3da9082ebe14991cU, 0x3cb8c7a33b546990U, 0x3d2a731dbe04db33U,
  0x3d926713bc8d44faU, 0x3e5303bdbdb3d012U, 0xbe2cba19bda23fc3U, 0x3d87bb053cbcadafU,
  0x3e1bb327be5c8f20U, 0x3cd9b3af3d60f5eaU, 0xbcaf8d54bcb3bbf3U, 0x3e1e6e9ebde07f87U,
  0x3e53934bbcda7d5bU, 0x3cc6edabbd3b2f62U, 0x3e3a0221be695908U, 0xbdbd24e83d47676aU,
  0x3de6711fbe00c4e4U, 0xbd647a0bbe1c3360U, 0xbd6be477bdce07aeU, 0x3d2e398f3d4569d2U,
  0xbdefc8b1be48356eU, 0xbdefb140bd888d4cU, 0xbd68953abe77694dU, 0xbe000863bafb4620U,
  0xbdd33bed3e047dfeU, 0x3d7a3a24bdb6711dU, 0xbe1c10eabdd9dbd9U, 0x3dbc72853dacac7cU,
  0x3e01b587be22e70fU, 0xbcba5faa3cd0fbb1U, 0xbd8759663a949f1bU, 0x3cbdd9c7be3b6f9bU,
  0xbc8061ccbdce32e6U, 0x3d91f1ccbd8013dcU, 0xbda85864be2a6aa0U, 0xbe2791f03d1389c2U,
  0xbd9196a2be801bf8U, 0x3b9edf823d1b06d3U, 0xbce2fb18be275631U, 0xbbc0bf33be55e689U,
  0xbd6d81f53e217078U, 0x3e0bd0c93d873deeU, 0xbdd55fd7bd09c851U, 0xbdf40ecb3e354f25U,
  0xbd02f8083e1d2c05U, 0x3d4220873e31f02eU, 0x3dcd2f6e3d60becdU, 0xbe0718f8bd947b7dU,
  0xbd0562663e493fe8U, 0x3deac5613e5c1201U, 0x3b183d753ceb0b1fU, 0x3e2b08e13da6301fU,
  0x3df0207b3e47a12cU, 0x3df0a4373e557956U, 0xbd9fea3dbe5d45a8U, 0xbe10a838bda22e06U,
  0x3d57f7ff3e504e28U, 0xbddcdb88bdffac01U, 0xbe1867f43ddf5043U, 0x3e0db53c3e4b8381U,
  0x3e41b2a6be086803U, 0x3d80fac33df821beU, 0xbd8344e0bbbb786fU, 0xbe0af585bcf63ffaU,
  0xbe0fa34abdb839c2U, 0x3d7b03133df3ed8eU, 0x3e0d8230bd8e7e1cU, 0xbbb21ef83d171e99U,
  0x3ce1a3883d6bb7dfU, 0x3e4fdd58be879cdeU, 0x3d94e18fbd8e8ca2U, 0x3d4d115fbddebf0cU,
  0x3e8b70f3be0cc362U, 0xbe01dc443d3947eaU, 0x3e20004cbe2057d4U, 0x3e78e3d1bd1c4403U,
  0xbcd08a21bd4621bcU, 0xbd94ee9e3da250e3U, 0x3e51e49dbdcae700U, 0xbdb13ab83dc6b851U,
  0xbd2c14493d12ffd7U, 0x3e8bda5dbe29043cU, 0x3d6e260a3ca641baU, 0xbe58d0943c17b00eU,
  0xbe3cb0e4bd63934dU, 0xbdb3948ebe217895U, 0xbd15e761be1a991bU, 0xbe5a331ebc189c28U,
  0xbe09c8013e2dbee3U, 0xbd2a95e8be086343U, 0xbc3d7b2f3d2dbc12U, 0x3db7ab393e6a5cf6U,
  0x3df0bd5f3dee6a94U, 0xbd8b4ae83e1a74dfU, 0xbdd3b9013cb6c1a7U, 0x3d4b2ef33dc1acdcU,
  0xbde2e1c73d87537fU, 0xbd11f6103dc9955aU, 0x3d54422cbe1c207aU, 0x3e37c00d3e6c3d5bU,
  0x3dd8b3dbbd366810U, 0x3b0dd2633d2484e0U, 0x3e2d614a3e0f0a9aU, 0xbdb6df88bdd2b40dU,
  0xbc9611a0be69100fU, 0x3cc29dee3e083e90U, 0xbddafb72bdcfe11cU, 0xbcdb6cf9be6bba7bU,
  0x3dc37e2b3e15ab78U, 0x3dea1e87bcc35a03U, 0x3d950f6bbe566c58U, 0xbe0fb9213e8c101eU,
  0xbe092f98be30bdecU, 0xbcc162cdbe1933c4U, 0xbd4e8bcdbd751f12U, 0x3da161ffbd203d22U,
  0xbe109b8cbda6d2ccU, 0xbe137fd2be479987U, 0xbcac34b3be32c100U, 0x3de35432be4038feU,
  0xbd8b4ffdbd08af1fU, 0x3dc56791be2516a2U, 0x3dea9708be2ba8a0U, 0xbddd81f83dc5f4b1U,
  0xbd912ca1be2bb202U, 0xbe0a25c2be14909aU, 0xbd97fe74bd4fea93U, 0x3e0cec0dbd47a751U,
  0xbbbf205b3e36f6aaU, 0xbced866b3b8270c3U, 0x3c13bcf03e356ed3U, 0xbe5126cf3e4342d3U,
  0xb91fd475bd239810U, 0x3e1ce8693d8f00c9U, 0xbdfe78763d4d9c05U, 0xbdbff0b1bd0aeae2U,
  0x3d830e7a3e1e3783U, 0x3b1723d8be2359c6U, 0x3db3c624ba993939U, 0x3d1459123e52ee4aU,
  0x3cadb4eabdaae672U, 0x3d052967bde67c0bU, 0xbbddcd78bdacdb64U, 0xbc4f2586be411b67U,
  0x3dbd8fb33db946d0U, 0xbd25d139bd9c297eU, 0x3e245eff3d82abaeU, 0xbda949cdbdbf6969U,
  0xbdb230b0be54b436U, 0x3d1b3cb33d5be182U, 0xbe29648f3dfb6c77U, 0x3deaacb5be5f0a58U,
  0xbd92db66be191ea7U, 0x3dc7a4f9bd65985bU, 0xbd905449be2b1030U, 0xbe0844fb3d274772U,
  0x3c2b17c83e11fef6U, 0xbd1dafc0be5be212U, 0x3d10d44dbd447d46U, 0xbe2e93a23e66a11dU,
  0x3dcd4ff1be4a3922U, 0x3e57311d3e2edbb7U, 0xbcf0ac313e48ed1cU, 0xbe399217bdba4e51U,
  0x3ddd2f453d90b2eaU, 0x3e2e2db13d448da3U, 0xbdcc35633ddda2e0U, 0xbda9433abe0f8a52U,
  0x3dca7b0ebd656e73U, 0xbda6d6983cc257c4U, 0xbd82fc233e03251cU, 0xbd46572fbe226b03U,
  0xbe941d63be261eaeU, 0x3e423188bd7288c5U, 0xbda25245bcf6c66dU, 0x39928060be1b673eU,
  0x3dc66b4abdc5fcd2U, 0x3e0e99fc3d879688U, 0xbd82a3e63e1b7b69U, 0xbde07e7abd59f726U,
  0x3d2e786abe2423b5U, 0xbe9ebd9f3dbc5f8eU, 0xbc9d1d883e120782U, 0xbdcb9ce83df16be1U,
  0xbe87d247bd80f8c7U, 0xbe01f6843d05e64dU, 0x3e6d53b63dfe6506U, 0xbe196a0a3e8541c6U,
  0xbde7d884be016eedU, 0x3d93f48cbde7b606U, 0x3d9359c53e5cf390U, 0xbcc821fd3df71ea0U,
  0xbcb107e3be129e9fU, 0x3cfc95ea3da4756dU, 0x3e0cc196be0c7068U, 0xbc1c34aebe2d8cceU,
  0x3d8b5ec23defb2e4U, 0xbdadc6b93d045ca2U, 0xbd094336bc237bd7U, 0x3ca005d33e1c87c8U,
  0xbe3171af3d1bcd9fU, 0x3e113be3be56c213U, 0x3dbb44093e4b94e7U, 0xbdb6bc833e384da6U,
  0xbe0eedfdbe19a397U, 0xbdad2283bd65efe3U, 0x3d070e6e3dde152cU, 0x3d60a05cbe579f78U,
  0xbc2a636cbd59c27eU, 0xbd9fc8e33e2a95e1U, 0x3cbb4f1c3da40258U, 0xbdb7eb2c3d2b32acU,
  0x3dcae76abccc154cU, 0x3dc5fcbdbdcdeda5U, 0xbcf1466c3e04ef43U, 0xbe65e0bdbdfc36e5U,
  0x3d92cbdfbe68ac47U, 0x3dd9d431bda79f94U, 0xbe5432513da6d81bU, 0xbe34f70e3e30a586U,
  0x3d725a58be16e07dU, 0x3d951f82bd4b9fd6U, 0x3c3319b83dcae943U, 0xbe2f5637be07dc51U,
  0xbd4b863dbdfbbaefU, 0xbdf0916abdcbfbc5U, 0xbe2cf82d3da9640fU, 0xbc6f1896be463540U,
  0x3e2277bbbd053ed4U, 0xbe49db44bc08e843U, 0xbe7d16e33d2fe3d0U, 0xbe55ebab3d4372e7U,
  0x3cdc25a73e49738aU, 0x3d4572393d1ec0cdU, 0xbd98c93cbe37741fU, 0x3e3ab2053dd1509dU,
  0x3e2263c23c9d6725U, 0xbcbec011be16cddbU, 0x3e4f7ad93d9d2709U, 0xbbe9bdf6bc40e200U,
  0xbde6cc863c0ac880U, 0x3e1ef35ebd40a6deU, 0x3e2658f9be23f9bbU, 0xbc82e2973d9a5efeU,
  0x3e60d493bda38611U, 0x3e38f2633dcdf7d6U, 0x3db03ea53d22b914U, 0xbe7a5624be2fd078U,
  0xbe2009913c987ab6U, 0xbd841cbbbd66768bU, 0xbe721872be11db0dU, 0xbad249f23d661db9U,
  0xbdb10eba3cf7acb2U, 0xbe5542863d2fc0e6U, 0x3dff711cbdf625b1U, 0xbe08fe6abcb4f602U,
  0xbd1ece3d3e0740ccU, 0xbdf7eaddbdec95b4U, 0x3e12e2c3bb704806U, 0xbe8011643d28e3cbU,
  0x3d91c9e03de9c860U, 0xbc520f26bdeaddf1U, 0xbe410e133dd11e3dU, 0xbe5f36533b16522bU,
  0x3b79df14bddfce7aU, 0xbcc4cbc73e0c9a78U, 0x3de6e1e83dbffc49U, 0xbc629eec3c9afdf8U,
  0x3e3246643e265b1eU, 0x3e2adc83bdfb2546U, 0xbd66cd323c6f953dU, 0xbde8c5c63d390840U,
  0xbc8ae00cbc5c30f5U, 0x3d227aa0bc75ca14U, 0x3e359481bdde818aU, 0x3e8276923d6bd78dU,
  0x3ca08c4e3c94b8faU, 0xbe3ebf923d9f32b1U, 0x3e43d2273d93f6f6U, 0xbe28468fbe388046U,
  0xbca872ea3b7995f7U, 0x3e6566463d1f56bdU, 0x3dc162f23e546541U, 0xbe5caaf03e387a78U,
  0xbdaed7433ddc789dU, 0x3e1736c53caf27d3U, 0xbdf24d8e3cf21a11U, 0x3dbf9717bdffcd77U,
  0x3d65dd673ddc24a6U, 0xbd2775613e1b4271U, 0x3e45d6f7be36f67bU, 0xbd8eb0853df6650dU,
  0x3df6b25fbda851aaU, 0x3dde3780bd5c0d0bU, 0x3d4e64f13dda5976U, 0xbc5b2a8dbe0148beU,
  0x3d986b7dbdf3fdb3U, 0xbd8a9510bdb5fe68U, 0x3dac3cf7be648a73U, 0x3db946d1bd1f1704U,
  0x3e08b60ebe0a4399U, 0x3d926be1be117667U, 0xbd238cf3be59ac26U, 0x3dbcc526be45f166U,
  0xbdd6d71abb6f2e0cU, 0xbd710680bd203989U, 0x3d3784fabd9786c0U, 0x3d4e3825be75ef6fU,
  0xbd59f416be0c98feU, 0xbd4dd8babe1f1970U, 0xbe5845e4be7a2e2fU, 0xbb98ca3a3d333225U,
  0x3d6a20763d6b98ccU, 0x3d9541a9be94ae58U, 0x3e0614eebd29fcb8U, 0xbd84d8eb3dd033faU,
  0xbd40e51cbccc2253U, 0x3d176c033cd007fbU, 0x3cb734c4bd822384U, 0x3da454efbe1ce51eU,
  0x3da4cf093c4ade3cU, 0x3cccaf9cbccff40cU, 0x3d0411f63c8b14f7U, 0x3d2be1e33e2ccb37U,
  0x3d61d70d3def2cd2U, 0x3e64995e3e3cb207U, 0xbdd042f03db0eb44U, 0xbda6399f3d0dd68eU,
  0x3dc6b85c3dea728bU, 0xbda4f0593e14e127U, 0x3e086e76ba3ed9c5U, 0x3e512b023db84339U,
  0x3d9fac15bbf68f65U, 0xbcc23cf63ac72d66U, 0x3d9c0fd8bdcd5b41U, 0x3cf1a9e43c954c47U,
  0x3e24c04abca7f180U, 0x3d8bc9043eaf947fU, 0xbe28095cbdf18addU, 0xbe1e38873dbc29dcU,
  0x3e298644bc8bf156U, 0xbc06cc46bc8a2bd7U, 0x3d869a6bbd93b0b9U, 0xbe0547043e71a69cU,
  0x3d9c7adabd702783U, 0xbe2e19ddbe00e700U, 0x3d37511fbceccc6fU, 0xbe020ea3bdb31e84U,
  0xbe56d2243d905079U, 0x3cabd5ed3c3a8a86U, 0x3b49b7613e40cc44U, 0xbd311c5ebdb2e2d5U,
  0xbe3cbcd3be22a147U, 0xbd7209363d112569U, 0xbdd1a83cbd33f2d7U, 0x3de3255cbdb520e0U,
  0xbda2487b3c2aba64U, 0xbd57d91bbdfee1afU, 0xbd026ee4be26dd3bU, 0xbdd54f27bbd43086U,
  0xbdfb48a5bd1caabaU, 0xbdd433ecbdca29c2U, 0xbe2aa003bde5ae4cU, 0x3ca55baabd1fa6c5U,
  0xbe09c826bc0e8e8dU, 0xbd8ff683bc5acc84U, 0xbdbc63f1bda89f55U, 0xbd5803a23b984c68U,
  0x4049cbd8404cd4efU, 0x3ff969aa40166178U, 0x3fdd5706401cdaafU, 0x3fb8aa0b400d404bU,
  0x40064d7740134fdaU, 0x402188733fbf534eU, 0x3fba7d67401765bfU, 0x3fbf178d400d3c85U,
  0x408bc1d93fd4a9ddU, 0x4033320b400e220aU, 0x4028fb6b401c4c73U, 0x4003eb7a402f39baU,
  0x4024007e3feb9622U, 0x3fc248c74070c77eU, 0x3fc71e054009d2eaU, 0x402ffd314003a4c3U,
  0xbf0b0947bf79df7eU, 0xbf14fe5abf0a027cU, 0xbe85f6e0bee7f352U, 0xbf035523bee761eaU,
  0xbecad993be93ad42U, 0xbec0003cbd9a1f84U, 0xbed91318bea5fe55U, 0xbea54eaabed37a7cU,
  0xbee2f51ebea6e466U, 0xbdfbb828bd5fdd80U, 0xbf48e134bf01d936U, 0xbe9d052ebe737f2dU,
  0xbf0f0de5bef1cb12U, 0xbef03ef2bf068f7fU, 0xbf1625bfbe276daeU, 0xbeb7e8d9bef2d5e8U,
  0x3d1eca913dbe8caeU, 0xbdf37adfbe217014U, 0xbd4922b83df8c5e4U, 0x3d3e8cae3d4922b8U,
  0x3d8ee983bd845379U, 0xbdc3d7b3bdb3f6a5U, 0xbea80ddabc7e10e8U, 0x3ca9609b3da41596U,
  0xbba9609b3d4922b8U, 0xbe197f8cbe0c4400U, 0xbbfe10e8be06f8fcU, 0x3c9434883e16da0aU,
  0x3d943488bd7e10e8U, 0xbc29609b3d845379U, 0xbd7e10e8be7e10e8U, 0x3e099e7e3da9609bU,
  0xbd33f6a53dd3b8c2U, 0xbdaeaba0U, 0x3d53b8c23d29609bU, 0x3cfe10e83ca9609bU,
  0xbd4922b8bd33f6a5U, 0xbdde4ecbbd5e4ecbU, 0xbe663f53bd1eca91U, 0x3dd3b8c2bd1eca91U,
  0xbd1eca913dc922b8U, 0xbe01adf73d099e7eU, 0xbd53b8c23bfe10e8U, 0xbce8e4d53dd3b8c2U,
  0xbd143488bde399d0U, 0xbcfe10e8bc7e10e8U, 0xbd7e10e8bde8e4d5U, 0x3d29609b3bfe10e8U,
  0xbd899e7ebdf37adfU, 0xbd099e7ebe5ba949U, 0xbdd903c7bd8ee983U, 0xbd143488bde8e4d5U,
  0x3d1434883c7e10e8U, 0x3d943488bbfe10e8U, 0xbe5ba9493d53b8c2U, 0x3d3e8cae3da41596U,
  0x3d737adf3d143488U, 0xbdfe10e8bda41596U, 0x3d997f8c3cd3b8c2U, 0xbc53b8c2U,
  0x3d9eca913cfe10e8U, 0x3ce8e4d53dc922b8U, 0xbdf8c5e4be099e7eU, 0xbc9434883c7e10e8U,
  0x3cfe10e83ce8e4d5U, 0xbe467d36be53b8c2U, 0xbdce6dbd3d737adfU, 0xbd845379bb29609bU,
  0x3db3f6a5bde8e4d5U, 0xbdb941aabdde4ecbU, 0xbe982ccbbbfe10e8U, 0x3d1434883db3f6a5U,
  0xbda9609b3d7e10e8U, 0xbe2c061dbe099e7eU, 0xbd9eca91be0c4400U, 0x3d099e7e3ca9609bU,
  0xbd53b8c2bdee2fdaU, 0x3c9434883cd3b8c2U, 0xbda9609bbe8af13fU, 0x3d68e4d5bca9609bU,
  0xbc29609bbe06f8fcU, 0xbda9609bbe51133fU, 0xbd899e7e3dbe8caeU, 0x3d53b8c2bd33f6a5U,
  0xbc943488bce8e4d5U, 0xbd997f8cbb29609bU, 0xbe8d96c2bd845379U, 0x3cbe8cae3cbe8caeU,
  0xbdce6dbd3dc3d7b3U, 0xbdc922b8bd943488U, 0xbdf37adf3c53b8c2U, 0xbc53b8c23da41596U,
  0xbd1434883db941aaU, 0x3d9eca91bd943488U, 0xbe143488be86f8fcU, 0x3cfe10e8bc29609bU,
  0x3cdc5db73df00aa7U, 0x3dd47ef000000000U, 0xbd4ca02abd254649U, 0xbd9588bc3d73fa0aU,
  0x3de82be13d1d6783U, 0xbd81dbccbe3aeaebU, 0xbcec1b44bd2d2510U, 0xbd547ef0be3ce29dU,
  0x3bfbd8d1bcfbd8d1U, 0xbd89ba92bdd47ef0U, 0xbd1d6783be3eda4eU, 0xbd5c5db7bd73fa0aU,
  0xbe4ca02abd919959U, 0x3cdc5db7bd4ca02aU, 0xbcec1b44bd7bd8d1U, 0x3d2546493c7bd8d1U,
  0xbde82be13e1588bcU, 0x3de82be13dec1b44U, 0xbd0da9f63d3503d6U, 0xbd3ce29d3d2d2510U,
  0x3dc4c1633c1d6783U, 0xbdcca02a3b7bd8d1U, 0xbd919959bd919959U, 0x3dd86e54bdd08f8dU,
  0xbdc4c163bcad2510U, 0xbd3503d6be36fb88U, 0x3d8da9f6bdfbd8d1U, 0xbdb503d6bc1d6783U,
  0xbe79e11fbb7bd8d1U, 0x3d44c163bd89ba92U, 0xbd5c5db73bbce29dU, 0xbd1588bcbc8da9f6U,
  0xbe03d37d3e2d2510U, 0x3de82be1bc1d6783U, 0xbd0da9f63de82be1U, 0xbdd86e54bd44c163U,
  0x3df3fa0a3c5c5db7U, 0xbc7bd8d1be40d200U, 0xbda546493dc8b0c7U, 0x3d89ba92bde43c7dU,
  0x3c5c5db7bd3503d6U, 0xbc3ce29dbe0da9f6U, 0xbd254649bc9d6783U, 0x3d254649bcbce29dU,
  0xbe586e54bdffc834U, 0xbd1588bc3bfbd8d1U, 0x3d8da9f63d7bd8d1U, 0xbe0da9f63d85cb2fU,
  0xbe330c253dd47ef0U, 0x3e0da9f6bd85cb2fU, 0x3da935ac3dc4c163U, 0x3cec1b44bd85cb2fU,
  0xbd547ef03dcca02aU, 0x3cfbd8d1be2156e6U, 0x3c5c5db73d9588bcU, 0x3db11473bdc4c163U,
  0x3d81dbcc3d9588bcU, 0xbcec1b44bc5c5db7U, 0x3d5c5db7bcbce29dU, 0x3d1588bcbdd86e54U,
  0xbe66342fbd8da9f6U, 0xbdb114733d05cb2fU, 0x3dd47ef03dd47ef0U, 0xbe3eda4e3dad2510U,
  0xbe1588bcbc3ce29dU, 0x3d2d25103d73fa0aU, 0xbd3503d63d9588bcU, 0xbd1588bc3b7bd8d1U,
  0xbc1d6783bd6c1b44U, 0x3b7bd8d1bddc5db7U, 0xbd1d6783bd0da9f6U, 0x3c7bd8d1bd6c1b44U,
  0xbd2546493d919959U, 0x3dc8b0c700000000U, 0xbd99781fbe01dbccU, 0xbd85cb2fbdb8f339U,
  0xbe66342fbe0fa1a7U, 0xbd2546493cbce29dU, 0x3d2546493e03d37dU, 0xbe3eda4ebd3ce29dU,
  0xbd321b6e3e079ab4U, 0xbe038e71be4a64fdU, 0xbdc24c783d018850U, 0xbd95c59cbdf2df96U,
  0xbc91b95abe2e0f2cU, 0x3cb21b6ebe25f6a6U, 0xbe507761bcb21b6eU, 0xbb018850bca1ea64U,
  0x3cf2df96bd3a33f3U, 0xbdaa02e9bd19d1dfU, 0x3d859492be3a33f3U, 0xbe80853f3dca64fdU,
  0x3cd27d82bd09a0d5U, 0xbe15c59cbdce7140U, 0x3dff045ebd321b6eU, 0xbdf2df96bdc658baU,
  0xbbc24c783d4a64fdU, 0xbcc24c78bd5a9607U, 0xbe038e713dbe4036U, 0xbdeac7113ce2ae8cU,
  0x3c91b95abdaa02e9U, 0x3d8dad18be4a64fdU, 0xbdbe40363b018850U, 0xbe1fe443bcb21b6eU,
  0x3db627b0bd7af81bU, 0x3d21ea64bdff045eU, 0x3e1bd8003d321b6eU, 0xbdb627b03e0ba6f6U,
  0xbdeac711be038e71U, 0xbd19d1df3d99d1dfU, 0x3c21ea64U, 0x3d11b95abd424c78U,
  0x3e079ab4bc91b95aU, 0x3dda96073d09a0d5U, 0x3d527d82bc818850U, 0xbd11b95a3d89a0d5U,
  0xbce2ae8cbdaa02e9U, 0xbc21ea64be11b95aU, 0xbdba33f3bd89a0d5U, 0x3d321b6ebd19d1dfU,
  0x3df2df963dba33f3U, 0xbcf2df963c21ea64U, 0xbce2ae8cbe11b95aU, 0xbd8594923c91b95aU,
  0xbd89a0d5bc018850U, 0x3d3a33f3bcf2df96U, 0x3db627b03ce2ae8cU, 0x3b0188503c62ae8cU,
  0x3ca1ea643cd27d82U, 0x3dce71403d91b95aU, 0xbd5a9607bdce7140U, 0xbe19d1df3c62ae8cU,
  0x3c21ea643dda9607U, 0xbd321b6ebe0ba6f6U, 0xbe018850bd11b95aU, 0xbd09a0d53df6ebd8U,
  0xbcc24c783e3c3a14U, 0xbd6ac7113d2a02e9U, 0xbda1ea64U, 0x3e018850bd21ea64U,
  0xbd5a96073da1ea64U, 0xbcf2df96bd321b6eU, 0x3d91b95abcd27d82U, 0xbd6ac711bde2ae8cU,
  0xbdc24c78be588fe6U, 0x3d91b95abb018850U, 0x3c424c78be72df96U, 0x3b818850bca1ea64U,
  0x3d8188503df6ebd8U, 0x3ca1ea64bdd27d82U, 0x3ca1ea64bdbe4036U, 0x3e588fe63d6ac711U,
  0x3db21b6e3e5689c4U, 0x3dfaf81b3e0dad18U, 0x3c91b95abcd27d82U, 0x3d89a0d5bc62ae8cU,
  0x3dd689c4bd527d82U, 0x3dff045e3d9dde22U, 0x3dce71403cc24c78U, 0xbdb627b000000000U,
  0xbc2cc8743e292ef1U, 0x3d972f653c2cc874U, 0xbd8ffc60bcbb2e7dU, 0x3d2cc8743ddf2d95U,
  0x3da1fbec3d852fd9U, 0x3ded939fbe019657U, 0x3d33fb78bd019657U, 0x3db061f6bd7bf9a8U,
  0x3e11c9213db3fb78U, 0xbda5956fbe06fc9aU, 0xbd019657bbe6609aU, 0xbc819657bdcd2e09U,
  0x3c819657bd66609aU, 0xbd25956f3e21fbecU, 0x3d972f65bd8ffc60U, 0x3dfbf9a83e2cc874U,
  0xbae6609aU, 0xbda5956f3dbb2e7dU, 0xbd74c6a4bcc99487U, 0xbd9395e33de6609aU,
  0x3d88c95bbcf4c6a4U, 0x3c819657bc8ffc60U, 0xbdf4c6a4bd7bf9a8U, 0x3dfbf9a8bddf2d95U,
  0x3e06fc9a3d2cc874U, 0x3db3fb783c9e626aU, 0x3df4c6a43d0ffc60U, 0xbd08c95b3d25956fU,
  0xbe2cc874bda92ef1U, 0x3d1e626a3bacc874U, 0xbe0a961dbdbb2e7dU, 0x3e1395e33e2e9535U,
  0xbde2c718bc819657U, 0xbdd0c78c3d74c6a4U, 0x3db061f63c499487U, 0xbbacc8743d8c62deU,
  0xbae6609aU, 0x3d3b2e7dbd25956fU, 0x3c2cc874bc819657U, 0xbd50c78cbdc26182U,
  0x3be6609a3d33fb78U, 0xbd6d939fbdb794fbU, 0x3d8c62debdc99487U, 0xbddf2d95bd74c6a4U,
  0xbe6493d9bd972f65U, 0xbe0a961dbc66609aU, 0x3d5f2d953db794fbU, 0x3d3b2e7dbce6609aU,
  0xbdd4610e3c9e626aU, 0xbda1fbec3d8ffc60U, 0x3d8c62debc8ffc60U, 0xbce6609abc819657U,
  0x3d0ffc60bcbb2e7dU, 0xbdb794fb3d9ac8e7U, 0xbe23c8adbd74c6a4U, 0x3c9e626abe1ac8e7U,
  0x3d66609a3e1395e3U, 0x3b66609abe3794fbU, 0xbcbb2e7dbe172f65U, 0xbda1fbec3dc99487U,
  0xbe3961bcbd9395e3U, 0xbd852fd93d3b2e7dU, 0xbd5f2d95bbacc874U, 0xbd972f653e3794fbU,
  0xbe4efacabbe6609aU, 0xbd8ffc60bd08c95bU, 0xbdd0c78c00000000U, 0xbb66609abd972f65U,
  0xbd4994873d88c95bU, 0xbcc99487bc9e626aU, 0xbd852fd93e1ac8e7U, 0xbd5f2d95be60fa56U,
  0xbd2cc8743dbb2e7dU, 0xbd9ac8e7bd1e626aU, 0x3da1fbecbd8c62deU, 0xbd172f65bd019657U,
  0xbe23c8ad3d0ffc60U, 0xbd2cc874bdc99487U, 0x3d4994873d9e626aU, 0xbd1e626a3e1562a4U,
  0x3dadd50b3dfd1fc3U, 0x3dc0215d3d1e9571U, 0x3cc32e15be13e8ecU, 0xbd2ac8523da7bb9aU,
  0xbd1e95713dfa130bU, 0xbd30e1c33d187c00U, 0x3e21a229bb432e15U, 0x3e33ee7bbde7c6b9U,
  0x3b926290bdd26dafU, 0xbdb0e1c33ac32e15U, 0x3e0f55d7bd062faeU, 0xbe41a7b9be187c00U,
  0xbdf3f99a3d61ad48U, 0x3d2ac8523dcf60f6U, 0xbd4f60f6bd7a130bU, 0xbd36fb34bc9e9571U,
  0x3d8322f63d67c6b9U, 0xbcaac8523c9e9571U, 0xbd9e9571bc926290U, 0xbdf70653bda7bb9aU,
  0x3dede02abcf3f99aU, 0xbd24aee2be33ee7bU, 0x3c9e9571bd0c491fU, 0x3c126290be0ac2c3U,
  0x3d61ad48bd062faeU, 0xbdc32e15be232886U, 0x3d126290bcdb93d8U, 0x3cc32e15bdadd50bU,
  0xbdd57a67bd6de02aU, 0x3d8c491fbcc32e15U, 0x3d24aee2bd893c67U, 0x3c73f99abc9e9571U,
  0xbe13e8ec3d0c491fU, 0xbccf60f63d187c00U, 0x3d30e1c33cf3f99aU, 0xbe32681f3d987c00U,
  0x3e0dcf7bbd5b93d8U, 0xbc926290be2dd50bU, 0x3da1a2293cdb93d8U, 0xbd8322f6bd73f99aU,
  0x3d5b93d83d4f60f6U, 0xbb9262903d00163eU, 0x3d7a130bbd126290U, 0xbe1d0f15bc862faeU,
  0xbe1b88b9bdede02aU, 0xbdede02abe093c67U, 0x3b926290bda4aee2U, 0xbb926290be0322f6U,
  0xbda1a229bd126290U, 0x3c926290bd1e9571U, 0x3ce7c6b9bd3d14a4U, 0xbc1262903d432e15U,
  0x3dadd50bbd862faeU, 0x3d4f60f6bc73f99aU, 0x3d2ac852bdfd1fc3U, 0x3c9e9571bde4ba01U,
  0xbd987c003d36fb34U, 0x3dadd50bbd8f55d7U, 0xbc862fae00000000U, 0xbdb6fb34bcf3f99aU,
  0xbde7c6b9be1d0f15U, 0x3bf3f99abd862faeU, 0x3dd57a673e10dc34U, 0xbd9b88b93ce7c6b9U,
  0xbe04a9523dc63acdU, 0xbd0c491f3e156f48U, 0xbd956f483c432e15U, 0x3d2ac852bd36fb34U,
  0xbd494786bd187c00U, 0x3d956f48bda4aee2U, 0x3dfa130bbd126290U, 0x3e24aee2bddea090U,
  0x3d7a130bbdb6fb34U, 0x3e0ac2c33cdb93d8U, 0xbd062faebc2ac852U, 0xbd6de02abcb6fb34U,
  0xbe1e95713d7a130bU, 0xbbc32e153d862faeU, 0x3e2ac8523e24aee2U, 0xbd73f99abd61ad48U,
  0xbdd44a08bcc0fd7cU, 0x3dc0fd7cbd10be1dU, 0xbdf60ffebe1327aeU, 0xbc1a6463bd5df04eU,
  0xbe62c3713d7ae321U, 0xbe04ae45be159140U, 0xbd9f3786bdcf76e5U, 0x3d240aa9be098168U,
  0x3d0717d73be79694U, 0x3b9a64633d240aa9U, 0x3da8ddccbde79694U, 0xbe28ddccbd1a6463U,
  0xbd40fd7cbdfae321U, 0xbe34eda4bdf13cdbU, 0x3dbc2a593de2c371U, 0xbe1f37863c8717d7U,
  0x3d375736U, 0x3d8beafabd375736U, 0xbe945c77be8ab631U, 0xbcd44a08bd2db0efU,
  0xbe0717d73cc0fd7cU, 0xbcd44a08bdadb0efU, 0xbd544a08bd90be1dU, 0x3d90be1d3cc0fd7cU,
  0x3dc5d09fbe04ae45U, 0x3d8beafa3d40fd7cU, 0x3dadb0ef3dadb0efU, 0xbd7ae3213dadb0efU,
  0xbcadb0efbe375736U, 0xbe159140bdc0fd7cU, 0x3d4aa3c2bce79694U, 0x3dadb0efbd9f3786U,
  0xbdb75736bd4aa3c2U, 0xbd5df04ebda8ddccU, 0xbe10be1dbe301a81U, 0xbd5df04ebdb75736U,
  0xbdddf04e3cfae321U, 0x3d40fd7cbdb28412U, 0x3d10be1dbe375736U, 0xbc40fd7cbcfae321U,
  0x3ce796943cadb0efU, 0xbd544a083c40fd7cU, 0x3cc0fd7c3e0244b4U, 0xbd9f37863da40aa9U,
  0x3c679694be1ccdf5U, 0xbdfae321U, 0x3e3c2a59bd375736U, 0x3e0244b4be40fd7cU,
  0x3c1a64633dddf04eU, 0x3d9f37863d959140U, 0xbe4f76e5be6ed349U, 0x3dcf76e53d0717d7U,
  0xbe1591403d375736U, 0xbe375736bdddf04eU, 0xbd375736bd8717d7U, 0x3d2db0efbb1a6463U,
  0xbd2db0efbd8717d7U, 0x3c8717d7bdec69b8U, 0x3cadb0ef3d5df04eU, 0x3db75736bc8717d7U,
  0xbdadb0ef3c679694U, 0xbd679694bcadb0efU, 0x3cd44a083db28412U, 0x3d9a6463be098168U,
  0xbd9a64633b1a6463U, 0x3cfae321be17fad1U, 0xbe62c371be992f9aU, 0xbc1a6463bdcf76e5U,
  0xbdbc2a59be6059e0U, 0x3c1a64633d1a6463U, 0xbdec69b8bd240aa9U, 0xbd544a083d9a6463U,
  0x3b1a6463be0717d7U, 0x3d10be1dbdf13cdbU, 0xbd0717d73e0e548bU, 0xbd8717d7bdfae321U,
  0xbe1327aebdc0fd7cU, 0xbd10be1dbdd91d2bU, 0x3e17fad13e17fad1U, 0x3d7ae321bdb28412U,
  0x3e328b903decfa66U, 0xbd4944e33e0857f5U, 0xbddcbf2bbd8857f5U, 0xbd42c6cbbdf6b78aU,
  0x3dd9801f3d0857f5U, 0x3daf4c84bdd9801fU, 0xbdf3787e3d35ca9cU, 0x3df6b78abcdcbf2bU,
  0x3e0518e93d35ca9cU, 0x3d81d9ddbc01d9ddU, 0xbe06b86f3d7d35a2U, 0x3e13b49ebc81d9ddU,
  0x3dbf87bf3c1bd23cU, 0xbc01d9dd3d9f1148U, 0xbe1554243d8518e9U, 0x3b4fc2fb3d989330U,
  0xbd921518bdbf87bfU, 0x3e06b86f3da58f60U, 0xbb4fc2fbbd1bd23cU, 0xbdb28b90bd2f4c84U,
  0xbc81d9dd3ce9bb5aU, 0x3c81d9ddbd7d35a2U, 0xbd9bd23cbe06b86fU, 0x3e037963be3aa92eU,
  0xbc1bd23cbdb5ca9cU, 0xbda8ce6cbd9f1148U, 0xbcf6b78a3dc944e3U, 0x3d0ed60dbd3c48b3U,
  0x3ce9bb5abe09f77bU, 0xbdd302073dac0d78U, 0xbe2dacfebdecfa66U, 0xbe2a6df23db909a8U,
  0xbd955424bd01d9ddU, 0x3dc605d7bd703972U, 0x3da25054bd0ed60dU, 0xbc81d9ddbc4fc2fbU,
  0x3dbc48b3bc4fc2fbU, 0x3cc2c6cbbc01d9ddU, 0x3c8ed60dbcdcbf2bU, 0x3da8ce6cbe4e2375U,
  0x3d3c48b3bc69bb5aU, 0xbdc2c6cbbd564113U, 0xbe09f77bbde9bb5aU, 0xbd3c48b3bda58f60U,
  0x3ccfc2fbbdbf87bfU, 0x3d633d43bd42c6cbU, 0xbd633d43bdac0d78U, 0xbe3c48b3bc81d9ddU,
  0x3d225054bdd9801fU, 0xbdc944e33d1bd23cU, 0xbcc2c6cbbddcbf2bU, 0x3d4944e33b9bd23cU,
  0x3c01d9dd3d155424U, 0xbd5cbf2b3cf6b78aU, 0x3e1893303ccfc2fbU, 0xbcc2c6cbbdd64113U,
  0x3dc605d7bd7d35a2U, 0x3d28ce6c3d2f4c84U, 0xbcf6b78abdd64113U, 0xbc35ca9c3db28b90U,
  0xbc35ca9c3d76b78aU, 0xbc69bb5a3d9bd23cU, 0xbdcc83ef3d955424U, 0x3d155424bd8857f5U,
  0xbdc605d73bcfc2fbU, 0x3d8b9701bda25054U, 0x3d9bd23cbd703972U, 0xbe0857f53d225054U,
  0x3c69bb5a3d42c6cbU, 0xbe4e2375be01d9ddU, 0x3dd302073da58f60U, 0xbe2dacfebd01d9ddU,
  0xbc01d9dd3d955424U, 0x3d3c48b3be3de839U, 0xbd4fc2fbbdf3787eU, 0xbcc2c6cb3c1bd23cU,
  0x3dd30207bda8ce6cU, 0xbddffe373d01d9ddU, 0xbbcfc2fbbd3c48b3U, 0xbdb5ca9c3dd64113U,
  0xbd68a3df3c82474aU, 0x3dac27583de8a3dfU, 0xbdb575943d0b9586U, 0x3c3a1cb2be252cabU,
  0xbe20858dbdc8120dU, 0xbd4cb92bbcdf55a3U, 0x3d4cb92bbd14e3c2U, 0xbb94e3c2bddaae85U,
  0xbe14e3c2U, 0xbe198ae0bdfb4057U, 0xbdfb40573db0ce76U, 0xbd86ee68be103ca4U,
  0x3cf1f21b3d8b9586U, 0xbcccb92b3e198ae0U, 0x3d68a3dfbd86ee68U, 0xbe5160493d1e31feU,
  0x3b94e3c2bd903ca4U, 0x3cdf55a33d8b9586U, 0xbd94e3c23d998ae0U, 0x3db57594be93b9faU,
  0xbc3a1cb23da7803aU, 0xbd02474a3dd16049U, 0x3cf1f21b3d14e3c2U, 0x3e0941f7bd82474aU,
  0xbe103ca4bb94e3c2U, 0xbe2e7ae7bc3a1cb2U, 0xbd1e31febc3a1cb2U, 0xbd71f21bbc94e3c2U,
  0x3d5607673d86ee68U, 0x3d02474a3d94e3c2U, 0x3dac27583c5f55a3U, 0xbdd16049be37c923U,
  0x3d1e31fe3c82474aU, 0xbd8b95863c3a1cb2U, 0xbd0b9586bcdf55a3U, 0x3e129033be20858dU,
  0x3d82474a3cdf55a3U, 0xbd82474a3cf1f21bU, 0x3c5f55a3bdb0ce76U, 0x3da2d91cbe769939U,
  0xbe0de915bd560767U, 0xbd0b9586bddaae85U, 0x3dd6076700000000U, 0xbd71f21b3da2d91cU,
  0x3de3fcc13de8a3dfU, 0xbde3fcc1be30ce76U, 0x3cccb92bbdd60767U, 0x3d0b9586bd71f21bU,
  0xbdba1cb23d71f21bU, 0xbe129033bdac2758U, 0xbdd16049bdb57594U, 0x3dd60767be1bde6fU,
  0xbd7b40573d998ae0U, 0xbd02474abd68a3dfU, 0xbdb57594bd82474aU, 0xbd436aefbe129033U,
  0x3d560767be02474aU, 0xbda7803abde3fcc1U, 0xbd903ca4bb94e3c2U, 0xbe6650503d998ae0U,
  0x3d903ca4bd14e3c2U, 0xbd30ce76be22d91cU, 0x3d30ce76bd94e3c2U, 0x3dbec3d1be02474aU,
  0xbd5f55a33e198ae0U, 0x3d436aefbdf69939U, 0x3d0b9586bd1e31feU, 0x3bdf55a3bd86ee68U,
  0x3d0b95863b94e3c2U, 0xbd27803abdbec3d1U, 0xbdccb92bbdfb4057U, 0xbd7b40573dffe775U,
  0xbd68a3df3d5f55a3U, 0xbcf1f21b3d5f55a3U, 0x3dffe775bda7803aU, 0xbdd160493b94e3c2U,
  0x3d0b9586bcf1f21bU, 0xbe0de915bdc36aefU, 0xbd14e3c2be129033U, 0x3e252cabbe4a659cU,
  0xbdfc6203bd8b7988U, 0x3da95cb8bdf90fe1U, 0x3dc73fe73c84d545U, 0xbc921dccbd61d0f5U,
  0xbc39f7603e067e56U, 0xbe09d0773d54886eU, 0xbe01832300000000U, 0x3bd4886ebb9f6652U,
  0xbe34fc2e3df90fe1U, 0x3dd7da90bd2caed9U, 0xbdf5bdbf3bd4886eU, 0x3dd1364cbe2caed9U,
  0x3cc73fe73da2b874U, 0x3d409ba4bc04d545U, 0x3e52df5d3dfc6203U, 0xbc1f6652bd921dccU,
  0xbd61d0f53db9f760U, 0x3d921dccbe04d545U, 0x3bd4886e3db3531dU, 0x3d473fe7be4c3b1aU,
  0x3d6f197c3cacaed9U, 0xbd84d5453cc73fe7U, 0x3d818323bd1f6652U, 0x3c9f66523d7c6203U,
  0xbdbd49823dc73fe7U, 0x3d84d5453d18c20fU, 0x3dcde42bU, 0x3de1d0f5bd54886eU,
  0xbd54886e3b54886eU, 0xbd6875383c04d545U, 0x3def197c3d921dccU, 0xbd8b79883d1f6652U,
  0xbe0ecbaa3c39f760U, 0x3d39f760bdb3531dU, 0xbcacaed93d5b2cb1U, 0xbdb9f760be032c34U,
  0xbcfc6203bc39f760U, 0x3d75bdbfbc04d545U, 0xbd33531dbce1d0f5U, 0xbd818323bd9f6652U,
  0xbe36a53fbd0b7988U, 0x3c54886eU, 0xbd8ecbaa3d04d545U, 0x3d121dccbe27b3a7U,
  0xbe0d2299bd61d0f5U, 0x3d98c20fbe3d4982U, 0x3df5bdbfbd04d545U, 0xbd7c6203bdebc75aU,
  0xbcacaed9bdd7da90U, 0x3b54886ebc54886eU, 0xbd8b79883d882766U, 0xbcef197cbad4886eU,
  0xbd54886e3d18c20fU, 0xbd33531d3dc09ba4U, 0x3c54886ebc04d545U, 0xbda60a96bd5b2cb1U,
  0xbd921dccbe2caed9U, 0xbd75bdbf3d121dccU, 0x3cacaed9bd18c20fU, 0x3d5b2cb1bdd4886eU,
  0x3b9f6652bd04d545U, 0x3dbd4982bd0b7988U, 0x3e0ecbaa3d121dccU, 0xbd956fedbd61d0f5U,
  0xbcacaed93bd4886eU, 0x3d54886e3dc3edc5U, 0xbd33531d3cc73fe7U, 0x3dbd4982be1074bbU,
  0xbe121dccbda60a96U, 0xbd6875383dfc6203U, 0xbdbd49823d409ba4U, 0x3da95cb83d54886eU,
  0xbd9c1431bdb9f760U, 0x3d1f6652bd7c6203U, 0xbcb9f7603cacaed9U, 0xbdcde42b3ad4886eU,
  0xbe260a963d121dccU, 0xbdfc62033cacaed9U, 0x3e384e4f3d33531dU, 0xbe032c34bda2b874U,
  0x3db9347b3e0cd53eU, 0x3d505b0abd0ae75cU, 0x3ce7819a3d8ec31fU, 0xbca9c5713d870b9aU,
  0x3df6f0a43cc8a385U, 0x3d7ea8293da20decU, 0xbd39347b3d581290U, 0x3d48a3853d317cf6U,
  0x3db17cf6bcd81290U, 0xbdd05b0abc1a5666U, 0x3e148cc33cd81290U, 0x3d6f391f3d581290U,
  0xbc1a56663df6f0a4U, 0x3dfea8293da5e9aeU, 0xbd6f391fbdb17cf6U, 0x3e63a5d73b76f0a4U,
  0xbcc8a3853e5fca15U, 0xbca9c5713de7819aU, 0xbe0cd53ebd581290U, 0x3b76f0a43d032fd7U,
  0x3deb5d5c3e167aa4U, 0x3c8ae75cbdb558b8U, 0xbd505b0abd9a5666U, 0xbd0ae75c3d39347bU,
  0xbc39347b3d832fd7U, 0xbd8ae75cbd220decU, 0x3d317cf6bd505b0aU, 0x3cf6f0a4bdbd103eU,
  0xbddbee523d29c571U, 0xbcf6f0a43ddfca15U, 0xbd1a5666be051db8U, 0x3d8ec31fbcb9347bU,
  0x3d39347b3d129ee1U, 0x3d0ae75c3cd81290U, 0xbddfca153c581290U, 0x3c8ae75cbdbd103eU,
  0xbd67819abd8ae75cU, 0x3b76f0a43dcc7f48U, 0xbca9c5713ca9c571U, 0xbe2f8f15bd317cf6U,
  0x3dc4c7c3bd220decU, 0xbcd81290bdbd103eU, 0xbc39347bbaf6f0a4U, 0xbc39347b3ce7819aU,
  0xbe10b1003db9347bU, 0xbd967aa4bd7ea829U, 0x3cf6f0a43c39347bU, 0x3c76f0a43ddfca15U,
  0xbd67819abca9c571U, 0xbd40ec00bd29c571U, 0xbcb9347bbca9c571U, 0x3d0ae75cbe23fbcdU,
  0x3d8ae75c3d032fd7U, 0xbde7819abc1a5666U, 0x3c9a5666bcc8a385U, 0xbe7502c3be051db8U,
  0xbc5812903dada133U, 0xbd870b9abd1a5666U, 0x3bb9347b3d29c571U, 0xbe0ec31fbd581290U,
  0xbda5e9ae3e10b100U, 0xbda20dec3d832fd7U, 0x3d6f391f3db9347bU, 0xbe032fd73e20200aU,
  0xbc76f0a4bdc4c7c3U, 0x3d40ec00bcc8a385U, 0xbe0141f6be070b9aU, 0x3d967aa4be1c4448U,
  0x3d8ae75cbcd81290U, 0xbdc8a385bd1a5666U, 0x3dd436cd3cd81290U, 0xbe67819abde3a5d7U,
  0x3c39347b3da9c571U, 0xbd6f391f3d505b0aU, 0xbcb9347bbc76f0a4U, 0xbdf6f0a43da9c571U,
  0x3da20decbd220decU, 0xbe5fca15bc39347bU, 0xbcb9347b3e25e9aeU, 0xbe08f97b3dc0ec00U,
  0x3db3fc32bd72faddU, 0x3c7bfaadbe21fc94U, 0x3c0ffcf5bd33fc32U, 0x3cb3fc323daf7c4bU,
  0xbe5ebb4bbe267c7bU, 0xbc7bfaadbc7bfaadU, 0xbe267c7b3cd7fb70U, 0xbe1fbca000000000U,
  0xbdca7bb9bd3cfc02U, 0xbc57fb70bc7bfaadU, 0xbe123ce9bb0ffcf5U, 0xbe003d4abde0fb3fU,
  0xbd8b7d0d3da1fc94U, 0xbce9fb0e3d60fb3fU, 0x3e0dbd013d8ffcf5U, 0xbcb3fc32bcc5fbd1U,
  0xbd57fb70bce9fb0eU, 0xbd827d3e3b0ffcf5U, 0xbe2f7c4b3de57b26U, 0xbd18fcc43e2d3c57U,
  0xbe55bb7cbc33fc32U, 0xbcb3fc32bcfbfaadU, 0x3cc5fbd1bc33fc32U, 0xbdb87c1a3db87c1aU,
  0x3d827d3ebde0fb3fU, 0x3d2afc63bcb3fc32U, 0x3c0ffcf5bd827d3eU, 0x3cfbfaad3d45fbd1U,
  0xbdd37b883dd37b88U, 0xbd98fcc43da1fc94U, 0x3ce9fb0ebcb3fc32U, 0xbda1fc943d947cddU,
  0x3dee7af63c7bfaadU, 0x3d7bfaad3d8b7d0dU, 0xbe31bc3e3e1d7cacU, 0x3dbcfc023e3abc0eU,
  0xbe8edcfbbdaafc63U, 0xbdd37b88bc33fc32U, 0x3d86fd26bd33fc32U, 0xbd69fb0e3d8ffcf5U,
  0x3c8ffcf5bd4efba0U, 0x3d33fc323e06fd26U, 0xbd4efba0bd3cfc02U, 0xbda67c7bbd9d7cacU,
  0x3ca1fc943d33fc32U, 0xbcb3fc32bcb3fc32U, 0x3de0fb3f3d4efba0U, 0xbd18fcc43b8ffcf5U,
  0x3d947cddbc57fb70U, 0xbcc5fbd1bc57fb70U, 0xbe31bc3e3d0ffcf5U, 0x3de9fb0e3ddc7b57U,
  0xbddc7b57be04bd32U, 0xbdd7fb703d06fd26U, 0xbd8b7d0dbe0ffcf5U, 0xbe18fcc400000000U,
  0xbb0ffcf5bd2afc63U, 0x3bd7fb703da67c7bU, 0xbc33fc323c33fc32U, 0x3d21fc94bd947cddU,
  0x3cc5fbd13daf7c4bU, 0xbd827d3e3d69fb0eU, 0x3e0dbd013df2faddU, 0x3c7bfaad3b8ffcf5U,
  0x3d8b7d0d3b0ffcf5U, 0x3dc5fbd13d21fc94U, 0xbe16bcd0bc0ffcf5U, 0x3cd7fb703e2f7c4bU,
  0xbe70baeabb8ffcf5U, 0xbdca7bb93ce9fb0eU, 0xbc8ffcf5be04bd32U, 0xbde9fb0ebd827d3eU,
  0xbd2afc633dbcfc02U, 0xbdf77ac5bd69fb0eU, 0xbd86fd263d86fd26U, 0xbe06fd26bb0ffcf5U,
  0xbd06fd263da67c7bU, 0x3b8ffcf5bd06fd26U, 0x3c7bfaad3dd37b88U, 0x3d06fd263d69fb0eU,
  0x3c88e15f3cc5b750U, 0xbd107c1dbe4d520eU, 0x3da74c57bd7af283U, 0xbd1816dbbdbe1c92U,
  0xbd6bbd07be0146a1U, 0xbd54eccc3dbe1c92U, 0xbdf72524bd9816dbU, 0xbe7171153e14497cU,
  0xbd907c1d3e1be43aU, 0x3d4d520ebce42249U, 0xbd88e15f3e0ac80eU, 0x3e237ef8bdbe1c92U,
  0xbbb681d43d7357c5U, 0xbe08e15fbdef8a66U, 0x3e19fd8b3b7357c5U, 0xbe1dcaeabd0146a1U,
  0x3d642249bce42249U, 0x3d08e15fbe0caebeU, 0xbd7357c5bd9fb199U, 0x3d9816dbbd9816dbU,
  0xbe032d50bc1816dbU, 0xbdd11f6d3d642249U, 0x3d9816dbbd88e15fU, 0xbe1dcaea3d1816dbU,
  0x3daee7163e14497cU, 0x3cb681d4be06faafU, 0x3c54eccc3e1262cdU, 0x3e051400be1816dbU,
  0x3db681d43e051400U, 0x3dc984afbd907c1dU, 0x3df725243dab19b7U, 0xbe2198493cd4ecccU,
  0xbd4d520ebd08e15fU, 0x3dba4f33bdb2b475U, 0xbdd8ba2bbd907c1dU, 0xbcb681d43d2ee716U,
  0xbd274c57be1816dbU, 0xbcc5b750be14497cU, 0x3c3681d4bdbe1c92U, 0xbe08e15f00000000U,
  0xbd1fb1993b7357c5U, 0x3d54ecccbe349b24U, 0xbd274c573dc984afU, 0x3d1fb199bd1fb199U,
  0x3e1816db3def8a66U, 0x3d94497cbe511f6dU, 0x3d8146a1bd08e15fU, 0xbe16302c3c88e15fU,
  0x3df357c5bd54ecccU, 0x3cc5b7503c3681d4U, 0xbd4d520e3c7357c5U, 0xbda74c573d642249U,
  0xbdba4f33bdb2b475U, 0xbaf357c5bde7efa8U, 0xbc88e15fU, 0x3c54eccc3d0146a1U,
  0x3d6bbd07bcf357c5U, 0x3bf357c5bda74c57U, 0xbc54ecccbd9816dbU, 0x3c9816dbbd9fb199U,
  0x3dc5b7503e0ac80eU, 0x3d5c878bbd1fb199U, 0x3c7357c5bd88e15fU, 0x3d8146a1bda37ef8U,
  0x3e3868833d9be43aU, 0x3e032d50bc54ecccU, 0x3c3681d43d45b750U, 0xbcb681d43cc5b750U,
  0xbe30cdc5bd0146a1U, 0xbd5c878bbdd8ba2bU, 0xbd9be43abd907c1dU, 0xbe3681d43c7357c5U,
  0xbbf357c5bdd8ba2bU, 0xbd1fb199be06faafU, 0x3de7efa83d2ee716U, 0xbd88e15fbdab19b7U,
  0x3d6bbd07baf357c5U, 0xbb7357c53c7357c5U, 0x3c9816dbbde42249U, 0x3dab19b700000000U,
  0x3dc3ab4d3ca4c626U, 0x3daba3bd3d403c81U, 0x3d7729393e471a18U, 0xbc094fcabd9a79c3U,
  0x3daba3bd3d2ba3bdU, 0xbd102d613bdbb2ddU, 0xbdfa9804be1de88fU, 0x3de5ff3fbb5bb2ddU,
  0xbe230ec03c894fcaU, 0xbd5bb2dd3cf72939U, 0xbc24c626bd403c81U, 0x3d7e06d03d9a79c3U,
  0x3cc03c81be328154U, 0x3de5ff3f3e3438b9U, 0x3d2ba3bd3db5f01fU, 0xbda4c626be59fb77U,
  0xbccdf7af3db28154U, 0xbcf729393cb28154U, 0xbd094fca3dc71a18U, 0x3d54d546bc403c81U,
  0x3e11e4c73e0cbe96U, 0xbd24c626bd54d546U, 0x3d403c81bddbb2ddU, 0xbd403c81bc094fcaU,
  0xbd9de88fbda834f1U, 0x3db5f01f3d4df7afU, 0x3d094fca3ccdf7afU, 0x3ce96e0b3b5bb2ddU,
  0xbccdf7afbdc71a18U, 0xbda834f13dfa9804U, 0xbe1553923d939c2cU, 0x3d7e06d0bcf72939U,
  0xbd5bb2ddbe18c25eU, 0x3d85e0ff3d102d61U, 0x3da1575aU, 0x3daf1288bc24c626U,
  0xbd9de88fbdd1667bU, 0xbd696e0bbd696e0bU, 0x3d403c81bc772939U, 0xbdd84412bc403c81U,
  0xbdbccdb63da4c626U, 0x3d696e0b3d894fcaU, 0xbce96e0b3d471a18U, 0xbdfa9804bc094fcaU,
  0x3c094fcabd9a79c3U, 0xbd395eea3d902d61U, 0x3ccdf7afbd102d61U, 0x3c894fcabd5bb2ddU,
  0xbcc03c81be267d8bU, 0x3cf729393e0b0730U, 0xbd970af83da1575aU, 0xbcc03c81bda4c626U,
  0x3d970af83ba4c626U, 0x3d902d61bc5bb2ddU, 0xbd629074bd7e06d0U, 0xbcdbb2ddbd395eeaU,
  0x3cc03c813da1575aU, 0xbdcdf7afbccdf7afU, 0x3cdbb2dd3d395eeaU, 0xbd102d61bd939c2cU,
  0xbddf21a8bd2ba3bdU, 0x3d8cbe963c970af8U, 0xbe0798643d85e0ffU, 0x3d094fcabe102d61U,
  0xbd696e0bbd027233U, 0x3c7729393dc3ab4dU, 0xbda1575a3e24c626U, 0x3da834f1bdb28154U,
  0x3d1de88f3d85e0ffU, 0x3cc03c813e027233U, 0xbd403c81bdd1667bU, 0x3da4c626bdfa9804U,
  0xbdfa98043ba4c626U, 0xbdf3ba6dbdf04ba2U, 0x3cb28154be042999U, 0xbb5bb2ddbd9de88fU,
  0xbc894fcabe155392U, 0x3dc03c813e531de0U, 0x3d85e0ffbdc3ab4dU, 0x3c894fcabdcdf7afU,
  0xbd07715a3d985f85U, 0x3ca94db03de8cad3U, 0xbda94db0bd07715aU, 0xbddc18323d5c1832U,
  0xbd53a11dbe57dca7U, 0xbb87715abdf141e8U, 0xbe0335cfbe46ee7cU, 0xbd42b2f1bdcb2a07U,
  0xbe866277bdd3a11dU, 0xbd757d73be1c9b10U, 0xbda0d69bbd757d73U, 0xbd0fe870bcfdf489U,
  0x3c07715a3e0bace5U, 0x3d5c1832bd9423faU, 0x3e0dcaaa3d20d69bU, 0xbdf57d73bd87715aU,
  0x3b07715a3d985f85U, 0x3d7df4893dbe7767U, 0xbe381e16bd20d69bU, 0xbced065e3d185f85U,
  0xbdad893bbd9c9b10U, 0x3d3a3bdc3da51226U, 0xbe3e7767be40952cU, 0xbe20d69b3d985f85U,
  0xbe1a7d4bbe855395U, 0x3da0d69bbdd3a11dU, 0x3d87715abd53a11dU, 0xbdf57d73bde8cad3U,
  0xbd985f853d53a11dU, 0x3d31c4c6bd757d73U, 0x3da94db03d20d69bU, 0xbe33e28cbe381e16U,
  0x3d9c9b103d3a3bdcU, 0x3d294db0bc294db0U, 0xbd8fe8703cdc1832U, 0xbd87715a3dad893bU,
  0xbe2fa70100000000U, 0xbd3a3bdcU, 0xbe5c1832bd985f85U, 0xbc985f853da0d69bU,
  0xbdc6ee7cbe81180aU, 0x3b07715abdf141e8U, 0x3d8fe870bccb2a07U, 0xbd87715a3d07715aU,
  0x3d6d065e3dba3bdcU, 0xbd42b2f100000000U, 0xbc985f85bccb2a07U, 0xbe20d69bbe7df489U,
  0x3da94db03dc6ee7cU, 0x3d8bace5bda94db0U, 0xbe59fa6dbc985f85U, 0xbc6d065ebdcf6592U,
  0xbe6053bdbd6d065eU, 0x3cdc18323c4b2a07U, 0xbced065ebe185f85U, 0xbe2512263b87715aU,
  0xbe381e16be4b2a07U, 0x3ca94db0U, 0x3da512263d9c9b10U, 0xbdf9b8feU,
  0x3d294db03d0fe870U, 0x3c87715abd31c4c6U, 0x3d6d065e3e01180aU, 0xbe055395be0bace5U,
  0x3d3a3bdcbcdc1832U, 0x3dd3a11dbdad893bU, 0xbe518357bde053bdU, 0xbe01180abd0fe870U,
  0xbd985f85bdf9b8feU, 0x3de48f4800000000U, 0xbdba3bdcbe272febU, 0xbdd3a11d3dd7dca7U,
  0xbdf57d73be2b6b76U, 0xbb07715abda51226U, 0x3ddc18323ca94db0U, 0x3d294db0bda51226U,
  0xbd757d733c87715aU, 0x3c07715abbcb2a07U, 0x3dd7dca73d9c9b10U, 0xbc07715abe4b2a07U,
  0x3d8534063d819a67U, 0xbd9000e4bdfc018fU, 0x3e11cdb4bc9e6761U, 0xbe139a833e42679aU,
  0x3da20100bd88cda5U, 0x3df4ce50be2b010fU, 0xbdfc018f3cd80156U, 0xbd819a67bc2ccddeU,
  0x3c1000e43ce667d3U, 0x3dc2679a3d34011dU, 0x3da9343f3cbb345bU, 0xbe0c6745bd2ccddeU,
  0xbd08cda5bc9e6761U, 0xbe2b010f3e036736U, 0x3c819a673d019a67U, 0x3d259aa03ce667d3U,
  0x3dd0ce173d939a83U, 0x3d973422bcd80156U, 0x3be667d33cd80156U, 0xbd1e67613e649b03U,
  0xbd499ad9be29343fU, 0xbda20100bded9b12U, 0xbe173422bd9acdc2U, 0x3c499ad93dc60139U,
  0x3dc60139bd259aa0U, 0xbcbb345b3caccddeU, 0xbd9acdc2bc1000e4U, 0x3c9e67613d2ccddeU,
  0x3e019a673d74ce50U, 0xbd42679abd3b345bU, 0x3df867efbdaccddeU, 0xbd50ce17bd173422U,
  0x3dd0ce17bdcd3478U, 0xbc819a67bd9000e4U, 0x3da59aa0bd019a67U, 0x3c1000e43e23cdd0U,
  0x3d6667d33d8c6745U, 0x3b6667d33d34011dU, 0xbd2ccddebd499ad9U, 0x3d9734223e036736U,
  0xbd8c67453dcd3478U, 0xbc2ccdde3cc99ad9U, 0x3ce667d33da20100U, 0x3d88cda5bdf867efU,
  0x3e50ce173da20100U, 0xbc1000e43c1000e4U, 0xbcc99ad9bc499ad9U, 0xbdd80156bd1e6761U,
  0xbdd467b73d2ccddeU, 0x3db79abcbbaccddeU, 0x3d2ccddebddb9af5U, 0x3db4011d3d173422U,
  0x3e139a83bd50ce17U, 0x3baccdde3d88cda5U, 0xbd5f34943da9343fU, 0x3e499ad9bd88cda5U,
  0xbe2034313dc99ad9U, 0x3d50ce173e0700d6U, 0x3d50ce173db4011dU, 0xbda20100bdc99ad9U,
  0xbce667d33dc60139U, 0xbc9e6761be1900f2U, 0x3c2ccddebdd80156U, 0x3b6667d3bddb9af5U,
  0xbc9e6761bd6667d3U, 0xbd019a67bdf867efU, 0x3d853406be62ce34U, 0x3da59aa0bdb79abcU,
  0xbe0367363e08cda5U, 0xbe44346abc9e6761U, 0xbdc2679abd019a67U, 0x3e053406bd173422U,
  0xbdff9b2e3d42679aU, 0xbd88cda5bd1000e4U, 0xbdd0ce173e0700d6U, 0x3d259aa0bda9343fU,
  0x3dd467b73d9000e4U, 0xbda20100be32344dU, 0xbd50ce17bdfc018fU, 0xbdc99ad9bd9acdc2U,
  0xbe231b3bbd11eff2U, 0xbd2bb0e0bd5f32bdU, 0xbd963ac43cdf32bdU, 0xbcf05e07bd1a8597U,
  0x3c4e0774bd095a4dU, 0xbdc571cfbc2bb0e0U, 0xbe02ea11bcce0774U, 0x3dc9bca13b895a4dU,
  0x3c2bb0e0bd4571cfU, 0x3d850f7b3d4e0774U, 0x3db44685bd4e0774U, 0x3cdf32bdbd11eff2U,
  0xbe80c4a83d1a8597U, 0xbe18602dbd705e07U, 0x3cabb0e0bd705e07U, 0xbe095a4d3dbcdc2aU,
  0xbdf4a8d93d344685U, 0xbbce07743d78f3acU, 0xbd095a4dbdabb0e0U, 0xbd569d183c095a4dU,
  0x3e0fca893e11eff2U, 0x3d1a85973daffbb3U, 0xbe2bb0e0bd963ac4U, 0x3d1a8597bd963ac4U,
  0xbd231b3bbb895a4dU, 0xbda31b3b3ddae7ebU, 0xbd67c862be366beeU, 0x3e11eff23dce0774U,
  0xbe884798be0da51fU, 0xbd5f32bd3d00c4a8U, 0x3d8da51f3dce0774U, 0xbc895a4d3d67c862U,
  0x3cce07743cf05e07U, 0xbdbcdc2a3de7c862U, 0xbd895a4d3cdf32bdU, 0xbcdf32bdbdce0774U,
  0x3d78f3ac3e11eff2U, 0x3c4e0774bd1a8597U, 0xbe11eff23cce0774U, 0x3e11eff2bc2bb0e0U,
  0x3c895a4d3d569d18U, 0x3cce07743d095a4dU, 0xbda7660ebe4be20aU, 0x3cf05e073d00c4a8U,
  0xbe1a8597bd8da51fU, 0xbe366beebdaffbb3U, 0x3d80c4a8bdabb0e0U, 0xbd11eff2bdb44685U,
  0x3b895a4d3e2dd649U, 0x3df8f3ac3d80c4a8U, 0xbdc571cfbd3cdc2aU, 0x3d11eff23d5f32bdU,
  0xbd3446853df05e07U, 0x3e095a4d3cdf32bdU, 0xbde7c862bdec1334U, 0x3e163ac4bda31b3bU,
  0x3d4571cfbd895a4dU, 0xbd78f3acbb095a4dU, 0x3daffbb3be2ffbb3U, 0x3dbcdc2abc9a8597U,
  0x3c095a4dbd11eff2U, 0xbe02ea113d850f7bU, 0x3d91eff23de7c862U, 0x3cbcdc2a3d8da51fU,
  0xbd9a85973e5f32bdU, 0x3daffbb3bc895a4dU, 0xbcce0774bcce0774U, 0xbd9a8597bd4e0774U,
  0x3d895a4d3cbcdc2aU, 0x3d1a8597bd1a8597U, 0x3d963ac4bd8da51fU, 0x3dc571cf3d850f7bU,
  0xbc4e0774bddf32bdU, 0x3c2bb0e0bdd25246U, 0xbc095a4dbe0fca89U, 0x3df05e07bd67c862U,
  0xbe637d90bd9a8597U, 0xbdb44685bc705e07U, 0x3c9a85973c705e07U, 0x3d9a8597bd8da51fU,
  0x3d0670183dfeb971U, 0xbc8d8378bd7eb971U, 0x3cc61e75be012191U, 0xbae26bf3bd89f9c8U,
  0x3d29d0f6bd37f7b5U, 0xbddb5893bc626bf3U, 0x3e5d1d6bbe1f33e7U, 0x3c29d0f600000000U,
  0xbce26bf3bd8d8378U, 0xbcb7f7b5bd1496d7U, 0xbba9d0f6bc0d8378U, 0xbded0902bdd0bb84U,
  0xbe0834f03cb7f7b5U, 0x3cfeb971be012191U, 0x3d29d0f63d910d28U, 0xbe09f9c8bd1496d7U,
  0xbdc294c53dfeb971U, 0x3d982087bd9496d7U, 0xbba9d0f63c0d8378U, 0x3ba9d0f6bd89f9c8U,
  0x3d1baa37bd7eb971U, 0x3d0d83783cfeb971U, 0x3d89f9c83c0d8378U, 0x3d1baa37be3f0b15U,
  0x3dc9a8243d544534U, 0x3d982087bd1496d7U, 0xbc8d83783d5b5893U, 0xbcfeb9713c461e75U,
  0x3d5445343be26bf3U, 0x3d7eb971be346e06U, 0x3b626bf3bdb0e456U, 0xbdf41c62bd1baa37U,
  0x3e0bbea03d77a612U, 0xbd8d83783d9baa37U, 0xbdc9a8243dbf0b15U, 0xbc29d0f6bd697f53U,
  0x3c9baa37bdd44534U, 0xbd9496d7bcb7f7b5U, 0x3e49a8243cb7f7b5U, 0x3d1baa373cb7f7b5U,
  0x3d9f33e73d1baa37U, 0xbc0d8378bcd44534U, 0x3d9f33e73c29d0f6U, 0xbded0902bd0d8378U,
  0xbdb0e456bc626bf3U, 0x3da2bd97be2b95ceU, 0x3dad5aa63dd44534U, 0xbd461e75bd1496d7U,
  0x3dd445343d910d28U, 0x3de26bf33d4d31d4U, 0xbd8d83783cc61e75U, 0xbcfeb971bb626bf3U,
  0x3da64746be1496d7U, 0xbcfeb971bc626bf3U, 0x3c7eb971bc461e75U, 0xbd89f9c83ba9d0f6U,
  0xbd37f7b500000000U, 0x3df41c623d867018U, 0x3dc9a8243e3d463dU, 0xbda64746bd22bd97U,
  0xbd37f7b53c461e75U, 0x3e02e668bddee243U, 0x3d5b5893bba9d0f6U, 0xbda9d0f63cfeb971U,
  0x3dd0bb843d867018U, 0x3d3f0b153dad5aa6U, 0xbe0d8378bc9baa37U, 0xbd0670183d697f53U,
  0xbd8d8378be04ab40U, 0xbdbb81653d4d31d4U, 0x3e60a71b3d37f7b5U, 0x3ddee243bd867018U,
  0xbe067018bae26bf3U, 0xbdc294c5bd37f7b5U, 0x3e0121913da64746U, 0xbcd445343d1baa37U,
  0x3e3d463dbba9d0f6U, 0x3df092b2be067018U, 0x3d8670183ae26bf3U, 0xbd9f33e7bcfeb971U,
  0xbdad5b5d3d53e171U, 0xbb9a1852bdf0c601U, 0x3cb3c70b3d470a15U, 0x3e039f71bde7247bU,
  0x3c00699a3bcd75c3U, 0xbc33c70b3dca3fecU, 0xbbcd75c3bdca3fecU, 0xbbcd75c3bded9029U,
  0xbc4d75c33d0d40f6U, 0xbcc09e673e322c1fU, 0xbdc3d43ebd9076cdU, 0x3da6efaebd73fbd8U,
  0x3d839f71bd3a32b9U, 0xbd1a1852be0ba60bU, 0x3dd717483e3a32b9U, 0x3cc09e673c80699aU,
  0xbe053a5cbe1a1852U, 0xbd208400bc33c70bU, 0xbdf3fbd83de7247bU, 0x3db6fce2bd3a32b9U,
  0x3d93aca43c33c70bU, 0x3c8d40f63d33c70bU, 0x3cf3fbd8bda6efaeU, 0x3cf3fbd8bd8d40f6U,
  0xbde0b8cd3d208400U, 0x3dd3e1713bcd75c3U, 0xbdea5a523d13aca4U, 0x3d8a0b1fbded9029U,
  0xbd7a67863d80699aU, 0xbc8d40f63b4d75c3U, 0x3e33c70b3e0ba60bU, 0xbd73fbd83d409e67U,
  0xbd2d5b5dbddd82f6U, 0xbc67247b3d9076cdU, 0x3d26efaebd2d5b5dU, 0x3e053a5c3d6d9029U,
  0xbd9d4e29bc00699aU, 0xbd00699abd409e67U, 0xbcf3fbd8bdd3e171U, 0x3da08400bd9076cdU,
  0x3d4d75c3bdb6fce2U, 0x3cb3c70b3de0b8cdU, 0xbe4bdad73db3c70bU, 0xbcb3c70b3db3c70bU,
  0x3d80699abd5a4d1fU, 0xbdd0ab9abdc09e67U, 0x3d9d4e293d6d9029U, 0x3cb3c70bbda08400U,
  0xbd1a18523da6efaeU, 0x3cda4d1fbe00699aU, 0xbc00699a3dc70a15U, 0x3ce7247b3d33c70bU,
  0xbd0d40f63dc3d43eU, 0xbd9d4e29bd86d548U, 0xbd06d548bdfa6786U, 0xbdbd68903d73fbd8U,
  0xbded9029bdd0ab9aU, 0xbd3a32b93e1211b9U, 0xbd93aca4bd73fbd8U, 0x3db09134bdea5a52U,
  0x3d13aca4bdd0ab9aU, 0xbd96e27bbc67247bU, 0x3dc70a15bd9076cdU, 0xbe187d673cc09e67U,
  0x3d80699abbcd75c3U, 0x3d13aca4be2554c3U, 0xbd73fbd83e00699aU, 0x3d60b8cd3ce7247bU,
  0xbdbd6890bdc3d43eU, 0xbe13aca43de0b8cdU, 0xbc1a18523cf3fbd8U, 0xbe221eec3c1a1852U,
  0xbdf731afbd53e171U, 0x3dbd68903dfd9d5dU, 0xbe00699a3b4d75c3U, 0xbdd3e171bdc3d43eU,
  0xbdd0ab9abcf3fbd8U, 0xbe1a185200000000U, 0x3d470a15bd60b8cdU, 0x3cda4d1fbdc70a15U,
  0xbd9787b5be852149U, 0xbe1bdc0abd8edf0aU, 0x3c8a8ab43d8edf0aU, 0xbd2d2d61bd3e7eb8U,
  0xbd13335fbdff6fbcU, 0xbd1bdc0a3d0a8ab4U, 0xbb8a8ab43c8a8ab4U, 0x3da484b6bd9787b5U,
  0xbe13335f3da8d90bU, 0xbdb5d60cbd93335fU, 0xbdd878b9bd4fd00eU, 0xbe35d60c3d0a8ab4U,
  0x3b8a8ab43ccfd00eU, 0xbdb5d60cbe5aa2e4U, 0x3d86365ebd8edf0aU, 0xbb8a8ab4bd01e209U,
  0xbe7b1b66be89759fU, 0xbd7272bb3bcfd00eU, 0x3dad2d61bdcb7bb8U, 0x3cf272bbbe5ef73aU,
  0xbc8a8ab4bdb5d60cU, 0xbe110934be1787b5U, 0xbd7b1b663da8d90bU, 0x3e086089bd7272bbU,
  0xbe2484b63dcfd00eU, 0x3cad2d613b8a8ab4U, 0xbd612164bd01e209U, 0xbd1bdc0abe155d8aU,
  0x3dcb7bb83dcb7bb8U, 0x3b0a8ab4be0cb4dfU, 0xbda8d90bbda03060U, 0xbdad2d61bd35d60cU,
  0xbdba2a62be472763U, 0xbbcfd00ebdee1e65U, 0x3d69ca103d9787b5U, 0x3d7272bbbe4da5e3U,
  0x3d1bdc0a3d2d2d61U, 0xbe3a2a62bd13335fU, 0xbd5878b9bd1bdc0aU, 0x3d8a8ab43c9bdc0aU,
  0xbcad2d613e1787b5U, 0x3ccfd00ebd7b1b66U, 0xbe1787b5bc9bdc0aU, 0x3db181b7be13335fU,
  0xbd13335fbd86365eU, 0x3d0a8ab4bd13335fU, 0x3d7272bbbd3e7eb8U, 0xbde121643d472763U,
  0xbd2d2d61bddccd0fU, 0xbd4fd00e3d93335fU, 0x3d01e2093c2d2d61U, 0x3d8a8ab4bd01e209U,
  0x3da03060bbcfd00eU, 0x3ccfd00ebdc72763U, 0x3c4fd00e00000000U, 0x3e01e2093d93335fU,
  0x3d0a8ab43cad2d61U, 0x3da8d90b3d472763U, 0x3d35d60c3dff6fbcU, 0x3d9bdc0abd13335fU,
  0x3e225a8bbd1bdc0aU, 0x3d9bdc0abc8a8ab4U, 0x3ce12164bd3e7eb8U, 0xbccfd00e3dee1e65U,
  0xbccfd00ebd472763U, 0xbdcfd00e3c9bdc0aU, 0xbdb181b73dcfd00eU, 0x3e0edf0abde9ca10U,
  0x3d01e2093c4fd00eU, 0xbd8edf0abc7272bbU, 0x3dbe7eb8bdc72763U, 0x3e06365e3d612164U,
  0xbd86365ebd69ca10U, 0x3d6121643d8a8ab4U, 0x3dc727633e0a8ab4U, 0x3da030603b8a8ab4U,
  0x3d1bdc0a3d2484b6U, 0xbd01e2093cbe7eb8U, 0xbcf272bb3d9bdc0aU, 0x3db5d60c3d5878b9U,
  0x3e25f29d3d17b93fU, 0xbb97b93fbe155a5aU, 0xbd509eb73e026332U, 0x3c97b93fbce395deU,
  0xbd2ab067bd8e3dabU, 0xbe026332bda134d3U, 0x3c3da78f3da134d3U, 0xbe2d0f4c3c3da78fU,
  0x3cd09eb73d17b93fU, 0xbd342bfbbcf68d06U, 0xbcaab0673dc26559U, 0x3cbda78f3d472323U,
  0x3e78ebeb3df68d06U, 0x3c84c2173c6395deU, 0xbc6395de3b97b93fU, 0xbe04c2173de853a8U,
  0x3dc265593de395deU, 0xbc84c2173d2ab067U, 0x3d4723233da134d3U, 0xbc84c2173e498208U,
  0xbd92fb753d80044dU, 0xbe17b93fbdaab067U, 0x3e00044dbdda1a4bU, 0xbdded8153ce395deU,
  0xbdc723233dcbe0edU, 0xbdbda78f3cf68d06U, 0xbc3da78f3e5c7930U, 0xbd342bfb3cbda78fU,
  0x3e52fd9c3d509eb7U, 0x3e026332bd3da78fU, 0x3dd09eb7bdc72323U, 0xbe38e9c53b17b93fU,
  0x3e0e3dab3d8e3dabU, 0xbd80044dbd342bfbU, 0x3d84c2173e00044dU, 0x3d2134d3bcf68d06U,
  0xbe109c90bd17b93fU, 0xbe52fd9c3d92fb75U, 0x3cbda78fbcd09eb7U, 0xbcf68d063d8e3dabU,
  0xbcaab067bd2ab067U, 0xbe6136fabb17b93fU, 0x3da134d33d8e3dabU, 0x3c97b93f3d2ab067U,
  0x3e25f29dbc3da78fU, 0xbdaf6e313d897fe1U, 0x3c97b93fbd04c217U, 0xbdd09eb7bd9c7709U,
  0x3e04c217bd80044dU, 0xbb17b93fbdaab067U, 0xbce395debda5f29dU, 0xbd84c217U,
  0xbe1c7709bd5a1a4bU, 0xbe84c2173c17b93fU, 0x3b17b93fbd2ab067U, 0xbd4723233b97b93fU,
  0xbd6d11723d0e3dabU, 0xbe12fb75bd472323U, 0xbd84c2173dc72323U, 0x3caab0673d9c7709U,
  0x3e4e3fd23d80044dU, 0x3c3da78f3b97b93fU, 0xbda5f29dbd472323U, 0x3b17b93fbd04c217U,
  0x3ded11723e04c217U, 0xbe1c7709be5c7930U, 0x3dc723233d04c217U, 0x3d897fe1bd9c7709U,
  0xbdc265593d17b93fU, 0xbe9689cdbdaf6e31U, 0xbdaab067bb17b93fU, 0x3b97b93f3dda1a4bU,
  0x3ce395deU, 0xbe0720fc3b17b93fU, 0xbd342bfbbd2ab067U, 0x3c97b93f3d2134d3U,
  0x3db42bfbU, 0xbce395debd768d06U, 0x3cbda78f3d6395deU, 0xbdd09eb7bd509eb7U,
  0x3dc216853d94366fU, 0xbd61d90b3d4cacb2U, 0xbcb78059bcd3bb7aU, 0xbe2962c83de1d90bU,
  0x3db3f8f5bd8618dfU, 0xbc61d90b3c8d27a7U, 0xbd307191bdde51a7U, 0xbe3071913d94366fU,
  0x3d7e142c3b61d90bU, 0xbd3e8f21be20904eU, 0x3c0d27a7bbe1d90bU, 0xbe323543bd82917aU,
  0xbd53bb7a3e04552cU, 0x3dbe8f213e0b63f5U, 0x3d770564bdec6f38U, 0x3e1d08eabd6ff69cU,
  0x3e0618dfbdbe8f21U, 0xbb61d90b3e2417b2U, 0xbc9b45383da962c8U, 0xbd2962c83c459deaU,
  0x3d307191bcd3bb7aU, 0x3e5aca43be20904eU, 0xbe279f163d94366fU, 0xbca962c83d82917aU,
  0xbd82917a3dacea2cU, 0x3d14366fbe00cdc8U, 0x3e3071913c9b4538U, 0xbd3e8f213d53bb7aU,
  0x3dbe8f213cc59deaU, 0x3e0b63f53e2b267aU, 0xbd9b4538bc459deaU, 0xbd97bdd33dde51a7U,
  0x3e601559bd68e7d3U, 0xbd8d27a73e15fa21U, 0xbd53bb7a3d90af0bU, 0xbc61d90b3e3e8f21U,
  0x3d9b4538be198185U, 0x3d3780593d53bb7aU, 0xbe2cea2c3c8d27a7U, 0x3d82917abc0d27a7U,
  0x3d61d90b3dc9254eU, 0x3cd3bb7a3d2962c8U, 0x3e17bdd3bd378059U, 0xbe00cdc8bda962c8U,
  0x3d378059bd6ff69cU, 0x3d4cacb23d225400U, 0xbc459deabcb78059U, 0xbd8d27a73d7e142cU,
  0x3e3b07bdbd8618dfU, 0x3d68e7d33e1d08eaU, 0xbe07dc91be1b4538U, 0xbb61d90b3e47619cU,
  0x3d9b45383ba962c8U, 0x3d3780593ce1d90bU, 0x3c8d27a7bdc59deaU, 0x3d8d27a7bdccacb2U,
  0x3ddaca433de8e7d3U, 0x3d459deabd225400U, 0x3d3780593d89a043U, 0xbba962c8bd97bdd3U,
  0xbca962c8bceff69cU, 0x3ae1d90b3d307191U, 0x3dec6f38bdc59deaU, 0x3df37e003cc59deaU,
  0x3d14366fbddaca43U, 0xbc459dea3e198185U, 0xbe07dc913d2962c8U, 0x3dde51a73e20904eU,
  0xbc459dea3d3e8f21U, 0x3ce1d90bbc2962c8U, 0xbdec6f38bd61d90bU, 0x3dc21685bae1d90bU,
  0x3d5aca433dc9254eU, 0xbe0618dfbd90af0bU, 0x3e10af0b3d459deaU, 0x3d7705643d4cacb2U,
  0xbc7e142c3e07dc91U, 0xbdd034163da962c8U, 0x3e1272bdbdde51a7U, 0x3dacea2cbc459deaU,
  0xbd03b8463e4c2a6dU, 0x3e0a4e4a3d2fa05eU, 0xbe13164f3df5e083U, 0x3ded187fbdd72473U,
  0xbe8b674abded187fU, 0xbe19ac52bd7ea888U, 0xbd1e1054be47c66bU, 0xbe0eb24c3b0c804bU,
  0xbda6d859bc52c070U, 0x3c0c804bbd64507aU, 0xbd413067bd386862U, 0xbe363661bdc13067U,
  0xbde8b47c3c52c070U, 0xbc2fa05e3db86862U, 0x3d9e10543d8c804bU, 0x3d881c49be13164fU,
  0xbd0c804b3cf5e083U, 0x3c0c804bbd5b8875U, 0x3d2fa05e3b8c804bU, 0x3dfea888bc75e083U,
  0xbe2d6e5dbe227457U, 0xbd7ea888bc75e083U, 0x3d52c070be363661U, 0xbe49f86c3bd2c070U,
  0xbe2274573c2fa05eU, 0x3bd2c070bd49f86cU, 0xbcafa05ebd954850U, 0x3bd2c070bd26d859U,
  0xbc0c804bbd99ac52U, 0x3d881c493e5b8875U, 0xbda6d8593dafa05eU, 0xbdc59469bddb8875U,
  0x3d8c804b3e13164fU, 0xbcd2c0703dc13067U, 0xbd8c804b3e081c49U, 0x3e24a658bd03b846U,
  0xbd9e1054be081c49U, 0x3c0c804bbd5b8875U, 0x3b0c804bbd99ac52U, 0xbddb8875bcc13067U,
  0xbd6d187f3d49f86cU, 0x3d413067bd1e1054U, 0x3d881c493d386862U, 0xbd0c804bbd99ac52U,
  0xbd64507abe03b846U, 0x3da274573dc59469U, 0x3c0c804bbdb40460U, 0xbe03b8463cafa05eU,
  0xbb8c804bbcc13067U, 0x3c2fa05e3d5b8875U, 0xbce4507a3dfa4486U, 0x3d4130673d881c49U,
  0xbddfec78bc75e083U, 0xbd5b8875bd03b846U, 0x3ddfec78be3ccc65U, 0xbe806d45bd954850U,
  0xbd5b88753e363661U, 0xbda27457bda6d859U, 0xbc8c804bbd64507aU, 0xbe2d6e5d3d52c070U,
  0x3d26d8593d154850U, 0x3dc13067bdd72473U, 0x3d99ac52bd881c49U, 0xbd52c070bce4507aU,
  0x3dd724733e13164fU, 0x3d90e44d3c8c804bU, 0xbe2d6e5d3d413067U, 0x3e03b846bd6d187fU,
  0xbe19ac52bd99ac52U, 0xbd0c804bbd83b846U, 0x3d90e44dbe508e6fU, 0xbe7ea888bd9e1054U,
  0x3dafa05e3e1bde53U, 0x3d8c804bbda27457U, 0x3db404603bd2c070U, 0xbd75e083bcc13067U,
  0xbdf5e083bb0c804bU, 0x3cd2c070be73ae82U, 0x3ddb8875bdc13067U, 0xbcf5e083be1e1054U,
  0xbd8073f93d4a692cU, 0xbe0e13abbc59fb1cU, 0xbc9bb35dbd845875U, 0x3da37c553da37c55U,
  0x3c59fb1c3d13ea65U, 0xbd045875bdb30e44U, 0xbd59fb1c3d883cf1U, 0x3d698d0b3e59fb1cU,
  0x3d0c216d3d2b454dU, 0xbe218a17baf91efbU, 0xbdb6f2c03d1bb35dU, 0xbb791efbbd698d0bU,
  0xbd698d0b00000000U, 0xbd237c553dfd0377U, 0xbdb30e443d9005e9U, 0x3dca692c3d4a692cU,
  0xbd3ad73c3d237c55U, 0x3dca692c3cd9fb1cU, 0x3bf91efbbcd9fb1cU, 0x3b791efbbaf91efbU,
  0xbcca692c3c8c216dU, 0x3c9bb35dbdca692cU, 0xbdd616a03bf91efbU, 0xbded71873d13ea65U,
  0x3c791efbbd698d0bU, 0xbe0e13ab3cab454dU, 0xbd9bb35dbd9005e9U, 0xbd8c216dbe218a17U,
  0x3d791efb3df15603U, 0xbdb6f2c03e256e93U, 0x3d0c216d3cca692cU, 0x3e2760d1bd330e44U,
  0xbc1bb35dbd3ad73cU, 0x3d97cee1bdca692cU, 0xbde5a88f3c9bb35dU, 0x3d698d0bbde1c413U,
  0xbd7156033d42a034U, 0xbe13ea653c8c216dU, 0xbe1005e9bd237c55U, 0xbd13ea653d0c216dU,
  0xbd791efbbda760d1U, 0xbdbebbb8bd791efbU, 0x3cab454dbe17cee1U, 0xbe4684b0be772cbdU,
  0x3df53a7f3d698d0bU, 0x3e0458753dc2a034U, 0x3da760d13df15603U, 0xbd9f97d9bdbebbb8U,
  0xbdd616a03d42a034U, 0xbda37c553df91efbU, 0xbdb30e443e19c11fU, 0xbce98d0bbdbebbb8U,
  0x3df91efb3c1bb35dU, 0xbd13ea653dbad73cU, 0xbd0c216dbd045875U, 0xbe42a034bdc2a034U,
  0xbe3ebbb83dc684b0U, 0xbd237c553d42a034U, 0x3d237c55bd523224U, 0xbe6d7187be2f29c8U,
  0x3c9bb35d3e083cf1U, 0x3e15dca33d42a034U, 0x3df156033dc2a034U, 0xbe19c11fbdce4da8U,
  0x3de98d0bbbf91efbU, 0x3cca692c3d523224U, 0xbd13ea653e13ea65U, 0xbd330e44bb791efbU,
  0xbd4a692cbcf91efbU, 0x3d8c216dbdd9fb1cU, 0xbcbad73cbd698d0bU, 0x3d0c216dbdf91efbU,
  0xbe29530f3d845875U, 0xbe064ab33d42a034U, 0x3af91efbbd045875U, 0xbe0c216dbdb30e44U,
  0x3ddddf983e0e13abU, 0x3dc684b0bc9bb35dU, 0x3d0458753e6b7f49U, 0xbe218a17bc3ad73cU,
  0x3e03d2e33e1c1136U, 0xbe2220cbbd9d951cU, 0xbe1785873c41f298U, 0xbc29b4453dc8022dU,
  0x3dce11c23d4e11c2U, 0x3d1d951c3d9a8d51U, 0x3dd729213e23a4b0U, 0x3c726f3e3d604080U,
  0xbd178587bdafc3daU, 0xbe2b382abc1175f2U, 0x3e1601a2be0e6e28U, 0xbd9d951c3bc1f298U,
  0xbd7e8e68bc5a30ebU, 0x3d5a30eb3d947dbcU, 0xbc41f2983cce11c2U, 0xbcc1f2983d35d36eU,
  0x3cf26f3e3e0556c8U, 0x3d0556c83e024efeU, 0xbd29b4453d604080U, 0xbd48022dbc9d951cU,
  0x3db8db39bd23a4b0U, 0xbd9a8d51U, 0x3de650143da3a4b0U, 0x3c726f3e3dc8022dU,
  0xbc41f2983d787ed3U, 0xbb41f2983d9d951cU, 0x3d1175f2bda09ce6U, 0xbe085e933dc1f298U,
  0x3c9175f23e209ce6U, 0x3db5d36ebcf26f3eU, 0x3dce11c2bd7e8e68U, 0xbd5421563d48022dU,
  0x3e406eb33dc1f298U, 0x3c9d951c3e1a8d51U, 0xbe1d951cbcda30ebU, 0xbcb5d36e3d885e93U,
  0x3bf26f3e3d8e6e28U, 0x3dd72921bac1f298U, 0x3e2b382abd1d951cU, 0xbcce11c2bdec5fa9U,
  0x3cfe8e68bca9b445U, 0x3d5a30ebbd9d951cU, 0x3e1601a23e0e6e28U, 0x3dafc3dabce65014U,
  0xbca9b4453b41f298U, 0xbca9b4453ca9b445U, 0xbd3be3033b9175f2U, 0xbdcb09f73d824efeU,
  0x3cc1f298bd2fc3daU, 0xbce650143ce65014U, 0xbdbbe303bde957dfU, 0xbc9175f23e32cba4U,
  0xbcc1f298bd35d36eU, 0x3ddd38b5bdf57708U, 0x3e283060bd35d36eU, 0x3d824efe3d0556c8U,
  0x3ce650143d726f3eU, 0xbcc1f298bd0b665dU, 0x3e2cbc0f3d978587U, 0x3c8556c83d604080U,
  0x3e26ac7bbd542156U, 0xbc41f298bdc8022dU, 0x3dfb869dbd978587U, 0x3c9d951cbbf26f3eU,
  0x3e0e6e283da3a4b0U, 0x3d978587bdce11c2U, 0xbdd1198cbd0b665dU, 0x3d5421563d4e11c2U,
  0x3e3be3033dda30ebU, 0x3d8556c8bca9b445U, 0x3de65014bc8556c8U, 0x3c9175f2bd4e11c2U,
  0xbac1f298bcda30ebU, 0xbda9b445bdec5fa9U, 0x3d9d951cbd8e6e28U, 0x3cfe8e683dc4fa62U,
  0x3cce11c2bd178587U, 0xbd8e6e283d5a30ebU, 0x3cb5d36ebde3484aU, 0x3dcb09f73c1175f2U,
  0xbcdf22963c704ca1U, 0xbe140aa33cdf2296U, 0x3d9ec4eabc704ca1U, 0x3d9ec4ea3c89505cU,
  0xbdafeef6be1c9fa9U, 0xbdb43979be11e562U, 0x3dc119013b89505cU, 0xbe883dbbbc09505cU,
  0x3db883fc3caba473U, 0x3bcdf88abe09505cU, 0xbccdf88a3dfd2c2aU, 0xbdd68d903d962fe5U,
  0x3d4df88abccdf88aU, 0xbcf04ca13e1ec4eaU, 0x3d67b79b3c09505cU, 0xbc704ca13c704ca1U,
  0xbe2feef63d8505d9U, 0xbd67b79bbd1a7a68U, 0xbd962fe5bc9a7a68U, 0xbdc119013da30f6dU,
  0xbe1ec4eabdbcce7eU, 0x3d8505d9bda759f0U, 0x3b09505c00000000U, 0xbe5f22963e11e562U,
  0xbd9ec4eabdc9ae07U, 0x3c9a7a68bdd2430dU, 0xbe09505c3e140aa3U, 0xbe140aa3U,
  0x3dfd2c2abbcdf88aU, 0xbd11e5623db43979U, 0xbcdf22963c09505cU, 0x3e00bb56bdb43979U,
  0x3cf04ca13df8e1a7U, 0x3d568d90bd962fe5U, 0x3d8505d9bda30f6dU, 0x3d8d9adfbe2feef6U,
  0xbdb439793d230f6dU, 0x3e297f323d9ec4eaU, 0x3d78e1a7be321437U, 0xbe5cfd54bcbcce7eU,
  0xbdc9ae073d78e1a7U, 0xbd78e1a7bcbcce7eU, 0xbdaba473bd456384U, 0xbda759f0be1c9fa9U,
  0x3e00bb563cf04ca1U, 0x3d91e562bd8505d9U, 0x3dd2430d3d3cce7eU, 0xbc09505c3c704ca1U,
  0xbd568d90bd91e562U, 0xbd67b79b3e20ea2cU, 0xbd9a7a683dd2430dU, 0x3d4df88abe433e43U,
  0xbe20ea2c3da30f6dU, 0x3dc56384bd67b79bU, 0xbdaba473be411901U, 0xbddf2296bc9a7a68U,
  0xbe1c9fa9bdf49724U, 0x3e0fc020bd78e1a7U, 0xbe3cce7e3c89505cU, 0x3e0fc020bd67b79bU,
  0x3d8505d9bc704ca1U, 0x3da759f03d00bb56U, 0xbc704ca1bd00bb56U, 0x3bcdf88abd00bb56U,
  0x3b09505c3c2ba473U, 0x3d9a7a683d962fe5U, 0xbdb439793c2ba473U, 0x3dc1190100000000U,
  0xbdf8e1a7bc9a7a68U, 0xbd2ba473bd78e1a7U, 0x3ddf2296be0b759dU, 0xbe54684ebdb883fcU,
  0xbe4788c63c4df88aU, 0xbd91e562bcaba473U, 0xbd2ba473bccdf88aU, 0x3e02e098bdcdf88aU,
  0xbd8505d93df49724U, 0xbd704ca13c704ca1U, 0xbd4df88a3d8d9adfU, 0xbdf49724bd962fe5U,
  0x3cdae19d3dce40e7U, 0xbdf423073d41a032U, 0x3d527679bdfc8e2bU, 0x3e1dd8dbbc6bb7e4U,
  0x3e06b239bd178880U, 0x3cfc8e2b3d9ff3a4U, 0x3d8ae7cb00000000U, 0x3db9350e3e1352eeU,
  0xbe0061debe049770U, 0x3d1788803d9bbe12U, 0xbdebb7e4bd1ff3a4U, 0x3bca0b56bd8ae7cbU,
  0xbd827ca7bd527679U, 0x3da85ec73e1bbe12U, 0x3cca0b56bd6bb7e4U, 0xbd30c9eb3d86b239U,
  0x3e2eaf223e371a45U, 0xbe156db73d39350eU, 0x3ca85ec7bc4a0b56U, 0x3e1ff3a4be178880U,
  0x3dd276793d30c9ebU, 0x3c86b239bd6bb7e4U, 0x3da42935bca85ec7U, 0x3d4a0b563e08cd02U,
  0xbe049770be0d0294U, 0x3dac94593d30c9ebU, 0x3debb7e4bda85ec7U, 0x3da42935be027ca7U,
  0x3d4a0b56bc6bb7e4U, 0x3d1788803e2643feU, 0x3d8ae7cbbdd27679U, 0x3cfc8e2bbd827ca7U,
  0x3d30c9eb3e0d0294U, 0xbe19a349bde78252U, 0xbc6bb7e43c285ec7U, 0x3cebb7e43c978880U,
  0x3d41a0323cebb7e4U, 0xbc06b2393d6bb7e4U, 0xbd6bb7e43d30c9ebU, 0xbd9352eebb86b239U,
  0xbe3b4fd7be220e6dU, 0x3cca0b563b86b239U, 0x3ca85ec73d9352eeU, 0xbb86b239bd41a032U,
  0xbdca0b56bd742307U, 0xbd0f1d5d3ddae19dU, 0x3d30c9ebbe0f1d5dU, 0x3d634cc03d4a0b56U,
  0x3de78252bb06b239U, 0xbd9bbe123b06b239U, 0xbd5ae19dbe3b4fd7U, 0xbc9788803de34cc0U,
  0x3bca0b563c86b239U, 0x3cb9350e3dd6ac0bU, 0xbd7c8e2b3bca0b56U, 0xbe049770bd06b239U,
  0xbdd27679be527679U, 0xbd178880bdf85899U, 0xbd6bb7e43bca0b56U, 0xbe6567893d742307U,
  0xbe45d5c43c4a0b56U, 0x3c4a0b5600000000U, 0xbc6bb7e4bd39350eU, 0x3d06b239bd5ae19dU,
  0x3d9ff3a43d8f1d5dU, 0xbdbd6aa0bc6bb7e4U, 0x3d1ff3a4be242935U, 0x3e156db73d6bb7e4U,
  0x3b06b239bd178880U, 0xbdfc8e2bbca85ec7U, 0xbd41a0323e06b239U, 0xbe85a4d5bdca0b56U,
  0xbdac9459bd9352eeU, 0xbd9352ee3c6bb7e4U, 0x3db9350ebcb9350eU, 0xbd634cc0bd6bb7e4U,
  0xbe113825bd5ae19dU, 0xbdf423073ddae19dU, 0x3b06b239bcb9350eU, 0x3c86b239bc6bb7e4U,
  0xbdaaea333d66bc2bU, 0x3d99d2c83d99d2c8U, 0xbc99d2c83cef47e1U, 0xbda25e7dbe19d2c8U,
  0x3ccd190a3e06986fU, 0xbe17afdabc99d2c8U, 0x3c88bb5cbd19d2c8U, 0x3da6a458be2f300eU,
  0x3ccd190a3d55a4c0U, 0xbd55a4c0be114712U, 0xbd3c019e3ccd190aU, 0xbd88bb5cbd802fa6U,
  0xbe3375e93d88bb5cU, 0xbcbc019ebd2aea33U, 0x3c4d190abd114712U, 0xbd847581bc6f47e1U,
  0xbdd15ee53da6a458U, 0xbccd190abd08bb5cU, 0xbd4d190abd448d54U, 0xbb08bb5cbd66bc2bU,
  0xbb88bb5c3db7bbc4U, 0xbcde3076bd55a4c0U, 0x3b08bb5c3d19d2c8U, 0x3daaea33be66bc2bU,
  0xbc6f47e1bc6f47e1U, 0xbde6bc2bbdc04779U, 0xbda25e7dbe203b90U, 0xbd2aea333d9e18a2U,
  0xbda6a458bbcd190aU, 0x3d3375e9bd002fa6U, 0xbdc047793d8d0137U, 0xbe5e30763d2aea33U,
  0xbd88bb5c3e225e7dU, 0x3d225e7dbdf38dbcU, 0x3d9147123c2aea33U, 0xbd4d190a3c88bb5cU,
  0x3e3c019e3d3375e9U, 0x3d08bb5c3d88bb5cU, 0x3cde3076bd66bc2bU, 0xbd08bb5cbc88bb5cU,
  0xbd958cedbb88bb5cU, 0xbc99d2c8bdef47e1U, 0xbd77d397bc2aea33U, 0xbdbc019e3de6bc2bU,
  0xbe17afdabdd15ee5U, 0xbd002fa6bd66bc2bU, 0x3d3375e9bc4d190aU, 0xbda6a458bd2aea33U,
  0xbd88bb5c3d66bc2bU, 0xbdaf300ebe66bc2bU, 0x3e158ced3dc04779U, 0x3dcd190a3caaea33U,
  0x3d1147123dd5a4c0U, 0xbb08bb5c3d225e7dU, 0xbdaf300e3d448d54U, 0x3d2aea333d19d2c8U,
  0x3dfc19723dc8d32fU, 0xbda25e7dbe002fa6U, 0xbd8475813d3c019eU, 0x3d9e18a200000000U,
  0xbd114712bd19d2c8U, 0xbe426a67be87a9e5U, 0xbdf7d3973de27650U, 0x3d19d2c8bdb375e9U,
  0x3d3375e93e6b0206U, 0x3de6bc2bbdeb0206U, 0x3df38dbc3df7d397U, 0xbc88bb5c3e2f300eU,
  0x3deb02063dde3076U, 0xbe0d01373cde3076U, 0xbdaf300e3caaea33U, 0xbe002fa6bccd190aU,
  0x3c2aea3300000000U, 0x3d5e3076bd914712U, 0x3d8d0137bdb375e9U, 0xbccd190a3d5e3076U,
  0xbd958ced00000000U, 0xbdb375e9be0d0137U, 0xbcbc019ebc88bb5cU, 0x3daf300ebdb7bbc4U,
  0x3e14efcb3d4aad3fU, 0xbdb21c20be11dda7U, 0x3c1366b93daf09fcU, 0xbd998b01bd998b01U,
  0xbdb21c20bdaf09fcU, 0xbd8a304ebdaf09fcU, 0xbb4488f73bf5ab35U, 0x3d9366b93e1faf49U,
  0x3e30930e3d50d186U, 0xbbc488f7bce962a5U, 0x3d75ab35bd6f86edU, 0x3dabf7d83cb84068U,
  0x3e1c9d253cabf7d8U, 0x3cf5ab353d25d390U, 0x3e3cdb9d3d56f5ceU, 0xbd8a304ebd9faf49U,
  0x3dfee1a03e2a6ec6U, 0xbac488f73de33e5eU, 0x3b4488f73d7bcf7cU, 0x3de650813de962a5U,
  0xbd0d42723c5d1a16U, 0xbda8e5b43da8e5b4U, 0xbb4488f73d50d186U, 0xbce962a5bc75ab35U,
  0x3e0d42723db84068U, 0xbdd3e3aa3dabf7d8U, 0x3dabf7d83c4488f7U, 0xbd4aad3f3d1faf49U,
  0x3ac488f7bd0d4272U, 0xbdf8bd593df29911U, 0x3e0a304ebdabf7d8U, 0x3ce962a53d0d4272U,
  0x3dbe64af3d6f86edU, 0xbde02c3a3de962a5U, 0xbcc488f73df8bd59U, 0x3d50d1863d8a304eU,
  0xbd50d186bd4488f7U, 0xbd6f86ed3d8a304eU, 0xbdec74c93d321c20U, 0x3d1faf49bdd3e3aaU,
  0x3d8a304e3d905495U, 0xbd80f9e2bd9366b9U, 0x3e1678ddbdda07f2U, 0xbde962a53ddd1a16U,
  0x3cf5ab353d8d4272U, 0xbcc488f73d50d186U, 0xbd9faf49be1801efU, 0x3de33e5ebd25d390U,
  0xbcdd1a163bf5ab35U, 0x3c9faf493c1366b9U, 0x3d5d1a163e1faf49U, 0xbbf5ab35bd384068U,
  0xbd5d1a16bc5d1a16U, 0xbbc488f73dec74c9U, 0x3ac488f73d9366b9U, 0x3dbe64afbd1faf49U,
  0x3db840683daf09fcU, 0x3cb84068bdd6f5ceU, 0x3dd0d186be198b01U, 0xbc2bf7d83d840c06U,
  0xbc4488f7bd80f9e2U, 0x3d7bcf7c3c871e2aU, 0xbd198b01bb4488f7U, 0x3bf5ab35bdcdbf63U,
  0xbe28e5b4bc9faf49U, 0x3d5d1a16bd9366b9U, 0x3dcaad3f3c4488f7U, 0xbd56f5cebddd1a16U,
  0xbda5d390bd80f9e2U, 0xbd8d42723d9faf49U, 0xbd9366b900000000U, 0xbd633e5ebe0bb960U,
  0x3d9c9d253df29911U, 0xbd6f86edbdb52e44U, 0xbd7bcf7cbdef86edU, 0xbc9366b93e42ffe5U,
  0xbd9678ddbdb21c20U, 0xbe2d80ea3d7bcf7cU, 0xbc9366b93d25d390U, 0xbd998b013d198b01U,
  0xbe320e22bd67e2c6U, 0x3df44eed3ca5a1fcU, 0xbd9d59e23d1d59e2U, 0x3e27b402bd9511c9U,
  0xbd90edbc00000000U, 0xbe1f6be83da17defU, 0x3e342028bc9511c9U, 0xbe48d467bcb6322eU,
  0xbd90edbcbe08a5a3U, 0x3d3e7a483d9d59e2U, 0xbe384435bdb20e22U, 0xbda17def00000000U,
  0x3dfc97063d88a5a3U, 0xbdbe7a48be026f90U, 0x3e238ff53ddb76a0U, 0xbe8378933d0cc9afU,
  0x3c46c261be2ffc1bU, 0xbcd752943d0cc9afU, 0xbc46c261bdf02ae0U, 0x3d25a1fc3c9511c9U,
  0xbdb20e22bc048196U, 0x3d0481963da5a1fcU, 0x3d5f9aadbd8cc9afU, 0x3d9511c9bd0cc9afU,
  0x3d67e2c6bddf9aadU, 0x3d9935d5bdfc9706U, 0xbde3beba3dadea15U, 0x3da17def3d702ae0U,
  0x3dcf0a7a3d25a1fcU, 0xbd46c261be08a5a3U, 0x3d0cc9af3e36322eU, 0xbdadea15bd4f0a7aU,
  0x3d46c2613bc6c261U, 0x3d9511c9bdbe7a48U, 0x3b048196bc9511c9U, 0x3e048196bbc6c261U,
  0x3dbe7a48bc46c261U, 0xbe1511c9bb848196U, 0x3e27b4023c67e2c6U, 0x3d7872f93d7872f9U,
  0xbdc6c261bd9d59e2U, 0xbc67e2c6bcb6322eU, 0xbd9511c93e048196U, 0x3ddf9aad3db20e22U,
  0x3e55408d3da5a1fcU, 0xbd9935d5bdadea15U, 0x3d2dea153c46c261U, 0x3b848196bd805d89U,
  0xbd0481963c46c261U, 0x3db20e223d8cc9afU, 0x3e1723cf3d702ae0U, 0x3ddf9aadbd88a5a3U,
  0x3cd75294bda9c608U, 0x3d1511c9bdba563bU, 0x3bc6c2613bc6c261U, 0x3ce7e2c6bc46c261U,
  0x3d048196bde3bebaU, 0xbd9511c93c9511c9U, 0xbcd752943e217defU, 0x3d7872f9bdec06d3U,
  0x3da5a1fcbb848196U, 0xbdf44eed3c25a1fcU, 0x3e217defbc9511c9U, 0x3d0cc9af3d9935d5U,
  0xbc8481963dec06d3U, 0x3ca5a1fcbd3e7a48U, 0x3d7872f93c46c261U, 0x3d1d59e23de3bebaU,
  0x3d1d59e23d25a1fcU, 0xbd0cc9afbd46c261U, 0x3c46c2613c46c261U, 0x3d9935d5bca5a1fcU,
  0xbd048196bd3e7a48U, 0xbda9c6083e026f90U, 0xbe12ffc23c25a1fcU, 0x3df02ae03c25a1fcU,
  0x3cc6c2613d88a5a3U, 0xbd67e2c6be048196U, 0x3c67e2c63df02ae0U, 0xbddb76a0bd048196U,
  0x3dd15a943d3883e6U, 0xbe587358bd989475U, 0xbd23399b3db4f784U, 0xbd7f7b8ebdc6b56eU,
  0x3dca41d0be0fb580U, 0xbd4dce323d06d68bU, 0x3d46b56e3da6c5fdU, 0x3dfbef2cU,
  0x3c0def4fbddbffbaU, 0xbdfbef2cbd46b56eU, 0xbb63187ebd0def4fU, 0xbc0def4fbd23399bU,
  0x3e1c20d73d3883e6U, 0x3d86d68b3d8a62edU, 0x3da3399b00000000U, 0x3ce3187ebd714a06U,
  0xbd5bffba3cb883e6U, 0xbd4dce323daa525eU, 0xbdaddec0bdca41d0U, 0xbde6a4e0bc0def4fU,
  0x3cf14a063ce3187eU, 0xbd63187ebcaa525eU, 0xbd54e6f63db16b22U, 0x3dbc1048bd3f9caaU,
  0x3db883e63cc6b56eU, 0xbd834a29bd06d68bU, 0x3ae3187e3d4dce32U, 0x3dedbda4bdedbda4U,
  0xbd6a31423d8def4fU, 0x3db883e63e26c5fdU, 0x3dfbef2c3ddf8c1cU, 0x3e4dce32be05105aU,
  0x3d86d68b3daa525eU, 0xbe36bdb5bd5bffbaU, 0x3d9508133d9c20d7U, 0xbd4dce323d316b22U,
  0xbd2a525ebd4dce32U, 0x3cd4e6f6bdedbda4U, 0x3dc3290cbd6a3142U, 0x3d7f7b8ebd0def4fU,
  0x3d3f9caabd150813U, 0xbe189475bd7862caU, 0x3df4d668bd917bb1U, 0x3d9508133ae3187eU,
  0x3d3f9caa3dd87358U, 0x3dbc10483dbf9caaU, 0x3d7862ca3c8def4fU, 0x3baa525e3d54e6f6U,
  0x3d9fad393d46b56eU, 0xbe2c188f3d86d68bU, 0x3d23399b3c0def4fU, 0xbc8def4fbdf862caU,
  0x3caa525ebd86d68bU, 0xbdc6b56ebd2a525eU, 0xbc46b56e3df862caU, 0xbd7862cabd7f7b8eU,
  0x3b63187ebd9fad39U, 0xbdb16b22bdb16b22U, 0x3dff7b8e3d917bb1U, 0xbd6a3142bdf14a06U,
  0x3d3883e63e0c291eU, 0xbd9894753e3a4a17U, 0xbbaa525ebc0def4fU, 0x3daddec0bd9fad39U,
  0xbda6c5fd3dcdce32U, 0xbe61524d3db883e6U, 0x3caa525ebd23399bU, 0x3baa525ebe034a29U,
  0xbd834a29bd7862caU, 0xbd54e6f63daa525eU, 0xbd0def4fbbe3187eU, 0xbdd15a94be3883e6U,
  0x3c7f7b8ebd8def4fU, 0x3daa525ebd9fad39U, 0x3e16ce443d714a06U, 0xbde6a4e03ae3187eU,
  0xbd46b56e3da3399bU, 0x3c46b56e3daddec0U, 0xbd1508133c0def4fU, 0x3e3c10483d6a3142U,
  0xbda43bf3be41e337U, 0xbdcd4aef3d3f9b46U, 0x3dbf9b463d11fc66U, 0x3de8aa43bdd66ab6U,
  0x3e3b0b63bbdafa99U, 0xbcff79b2bd11fc66U, 0xbe18d43bbdc8bb0cU, 0x3db67b803de8aa43U,
  0xbd48bb0c3e11fc66U, 0xbde41a5fbd8d6c83U, 0xbddafa993cff79b2U, 0x3d641a5fbda43bf3U,
  0x3e1b1c2c3dc8bb0cU, 0x3d968c493e2fa3abU, 0xbd5afa99bc367b80U, 0x3ced3a263cff79b2U,
  0xbe1b1c2cbe566ab6U, 0xbdd66ab63ced3a26U, 0x3ced3a263da43bf3U, 0x3e044cbcbbdafa99U,
  0x3e168c493d243bf3U, 0xbd6d3a26bc7f79b2U, 0xbd91fc663d8d6c83U, 0x3df1ca093d367b80U,
  0xbd968c493e0d6c83U, 0x3c5afa99bddf8a7cU, 0xbd968c493d641a5fU, 0xbc91fc663d6d3a26U,
  0x3d3f9b46bc367b80U, 0xbd8d6c833d51dad3U, 0xbe044cbcbdc42b29U, 0x3d367b80bd1b1c2cU,
  0xbda8cbd6bd3f9b46U, 0xbc91fc663cb67b80U, 0xbe243bf33d9b1c2cU, 0xbd08dca0be38c371U,
  0xbd7f79b2bd7659ecU, 0x3d2d5bb9bd48bb0cU, 0xbbdafa99bd9b1c2cU, 0xbd7659ecbdcd4aefU,
  0x3d08dca0bcff79b2U, 0xbd3f9b463b91fc66U, 0xbd367b803b11fc66U, 0xbda8cbd600000000U,
  0xbde41a5f3d1b1c2cU, 0xbd641a5fbd844cbcU, 0xbde41a5fbd367b80U, 0xbdb1eb9cbe0204cbU,
  0xbd6d3a26bd9b1c2cU, 0xbe1d641ebdd66ab6U, 0xbc367b80bd968c49U, 0x3d968c49bd2d5bb9U,
  0xbd08dca03ced3a26U, 0xbd3f9b46be0fb474U, 0xbd844cbcbcdafa99U, 0xbdcd4aef3c91fc66U,
  0x3c7f79b2bcff79b2U, 0xbd641a5f3b91fc66U, 0x3c91fc66bcb67b80U, 0xbd51dad33d3f9b46U,
  0xbd243bf33dad5bb9U, 0x3c91fc66bd9fac10U, 0x3ca43bf3be38c371U, 0x3d2d5bb93d91fc66U,
  0x3d968c493da8cbd6U, 0xbdb1eb9c3cff79b2U, 0xbe08dca0bd1b1c2cU, 0x3d968c493d08dca0U,
  0x3b91fc66bde41a5fU, 0xbd3f9b46be1fac10U, 0x3c5afa993d367b80U, 0xbdff79b23d3f9b46U,
  0x3ddafa993ca43bf3U, 0xbda8cbd6be21f401U, 0x3e08dca03c11fc66U, 0x3d6d3a263dad5bb9U,
  0x3d8d6c83bd844cbcU, 0xbdbb0b63bddf8a7cU, 0xbc367b80be90d86dU, 0xbd8d6c83bc91fc66U,
  0x3c824e693c43759eU, 0x3d7c77eb3d8660dcU, 0x3cf45305bd024e69U, 0xbc43759e3dcb9a84U,
  0x3d0a7350bd0a7350U, 0xbc43759ebd4b9a84U, 0xbe4facf7bd7c77ebU, 0x3e024e69bc929836U,
  0x3d1abd1d3d5be451U, 0xbbc3759ebcb32bd0U, 0xbdfc77eb3e108efcU, 0x3d9ecf90bd3b50b7U,
  0x3ddbe451bd3b50b7U, 0x3daf195d3d745305U, 0x3bc3759ebe704092U, 0xbd43759e3e2b06eaU,
  0xbd3b50b7be0a7350U, 0xbcd3bf6b3cb32bd0U, 0x3d22e203bd4b9a84U, 0x3cc3759ebd024e69U,
  0xbd9298363dcfacf7U, 0x3d3b50b7bb824e69U, 0xbd5be4513d53bf6bU, 0x3db73e44bd43759eU,
  0x3e024e69bda2e203U, 0xbb024e69bbc3759eU, 0xbe16aaa93da6f477U, 0x3dc788113b024e69U,
  0x3e3f632abd024e69U, 0x3d22e2033ce40938U, 0xbcb32bd0bdfc77ebU, 0xbd0a7350bd2b06eaU,
  0x3d9ecf90bd3b50b7U, 0x3b824e69bd824e69U, 0x3de81bab3d8e85c3U, 0xbc024e69bd96aaa9U,
  0x3dcfacf7bca2e203U, 0xbda2e2033b824e69U, 0xbdb32bd03e00452fU, 0x3ca2e203bd1abd1dU,
  0x3d9abd1dbdc78811U, 0xbd96aaa9bd332bd0U, 0xbe8149cc3d6c2e1eU, 0xbc43759e3bc3759eU,
  0xbcd3bf6b3d8a7350U, 0x3dab06eabcd3bf6bU, 0x3cb32bd03c824e69U, 0xbe39477dbdc3759eU,
  0x3d43759ebe0c7c89U, 0x3cb32bd0bc43759eU, 0xbd824e69bd024e69U, 0x3d5be4513c929836U,
  0x3db32bd03d129836U, 0xbe39477d3d4b9a84U, 0xbd8e85c33d0a7350U, 0x3d2b06eabe22e203U,
  0x3dd3bf6bbcc3759eU, 0xbd43759ebe14a170U, 0xbe6e37583dd3bf6bU, 0xbddff6c43ca2e203U,
  0x3cb32bd03d640938U, 0x3d929836bd0a7350U, 0xbd8660dcbe0a7350U, 0xbe26f477bdb32bd0U,
  0x3d024e69be3b50b7U, 0x3cf45305bb824e69U, 0xbdcb9a843db32bd0U, 0x3e18b3e3bd0a7350U,
  0xbc43759e3c024e69U, 0xbde40938bdfc77ebU, 0xbc9298363dab06eaU, 0xbdcfacf7bda6f477U,
  0x3d929836bdc3759eU, 0xbdab06eabd1abd1dU, 0xbe2d1023bc640938U, 0xbdbb50b7bd129836U,
  0xbcc3759e3c43759eU, 0xbdbb50b73d1abd1dU, 0xbd0a7350be7e8125U, 0xbd9ecf90bb024e69U,
  0x3bda1a483ada1a48U, 0xbd4c78a4bdbb6e96U, 0x3c3ed6ff3ba393b6U, 0x3cda1a483d817f9bU,
  0x3ada1a483e1cc2e4U, 0xbd7c2e63bd2393b6U, 0xbd95f2123d5a1a48U, 0x3c5a1a483c95f212U,
  0xbda02b4d3e04e804U, 0x3c95f212bdaa6488U, 0xbcb1355abdadccf1U, 0xbd2393b63bda1a48U,
  0x3dc23f683d2393b6U, 0xbda02b4d3e10d574U, 0xbdb8062dbc08506dU, 0x3d08506dbdda1a48U,
  0xbccc78a4be0a04a2U, 0xbd817f9bbdbb6e96U, 0x3c08506dbda393b6U, 0xbd45a7d1bc2393b6U,
  0xbdadccf13d755d91U, 0x3d2393b63c2393b6U, 0xbdc9103abd534976U, 0xbc3ed6ff3e423f68U,
  0xbccc78a43c3ed6ffU, 0x3ada1a48be586613U, 0xbe08506d3df55d91U, 0x3d1cc2e43dc23f68U,
  0x3df55d91bdadccf1U, 0xbe0333cf3e2547ebU, 0x3bda1a48bd8f213fU, 0xbd31355abc755d91U,
  0xbcf55d91be1cc2e4U, 0xbd08506dbc88506dU, 0xbdc5a7d13c88506dU, 0xbcbed6ffbe3ed6ffU,
  0xbd45a7d1bda02b4dU, 0x3dcc78a4be1b0eafU, 0x3dc23f683d817f9bU, 0xbe1e77183e1e7718U,
  0xbe195a7bbd2393b6U, 0x3d3ed6ffbe43f39dU, 0xbdaa6488bda393b6U, 0xbe1cc2e4bd9289a8U,
  0x3d995a7bbe2547ebU, 0xbbda1a483d755d91U, 0xbc755d913d1cc2e4U, 0xbd755d91bda02b4dU,
  0xbdd6b1df3da393b6U, 0xbd4c78a43d017f9bU, 0xbd817f9b3b5a1a48U, 0x3dc5a7d1bd60eb1aU,
  0xbccc78a4be04e804U, 0x3dee8cbfbda02b4dU, 0x3c08506dbe2547ebU, 0xbe1e7718be017f9bU,
  0x3d08506d3c95f212U, 0xbe26fc1fbd45a7d1U, 0x3dcc78a4bd0f213fU, 0xbe0a04a2bd08506dU,
  0xbdbed6ffbd95f212U, 0x3daa64883e2393b6U, 0xbd4c78a4bdaa6488U, 0xbe0333cfbd95f212U,
  0x3db8062d3cf55d91U, 0x3d60eb1abd8f213fU, 0xbd017f9bbd5a1a48U, 0x3e069c383c5a1a48U,
  0x3d1cc2e4be10d574U, 0xbd755d913c2393b6U, 0x3dadccf1be0333cfU, 0xbda6fc1fbde45383U,
  0xbc88506d3d4c78a4U, 0xbde0eb1abe04e804U, 0x3d755d913bda1a48U, 0xbce7bbecbd017f9bU,
  0xbc5a1a48bd017f9bU, 0xbde7bbecbd08506dU, 0xbc95f212bc95f212U, 0xbe1b0eafbe0a04a2U,
  0xbe3876a73e06ccddU, 0x3d975acbbdd01cd7U, 0xbc846f723b975acbU, 0x3d175acbbe258b4eU,
  0x3d2a4624bc630830U, 0xbdc1ec54bdec7dddU, 0xbde7c307bde7c307U, 0x3b175acb3de7c307U,
  0x3d5992843c846f72U, 0xbd6c7dddbda0d078U, 0xbdd01cd73db3bbd1U, 0x3be308303d2a4624U,
  0xbdb3bbd13c846f72U, 0xbc175acbbdc1ec54U, 0x3c975acbbdbd317eU, 0x3d929ff53d3d317eU,
  0xbdec7ddd3de7c307U, 0x3e046f723c846f72U, 0x3d0de51e3e06ccddU, 0xbc975acbbe41ec54U,
  0x3d5992843e27e8b9U, 0xbe7f6937bd046f72U, 0x3dde4d5abcf5f38aU, 0x3c3d317e3d630830U,
  0x3d5992843e129ff5U, 0xbc846f723d7f6937U, 0xbd975acbbdd01cd7U, 0x3d6308303d046f72U,
  0xbe0212063d46a72aU, 0xbc975acb3d20d078U, 0x3c846f72bde7c307U, 0xbc630830bdaf00fbU,
  0xbe962c15bd46a72aU, 0xbc630830bd8de51eU, 0xbdc1ec543d6c7dddU, 0xbcbd317ebe2a4624U,
  0xbd20d0783da0d078U, 0xbdc6a72a3d75f38aU, 0x3d2a4624bd630830U, 0x3d7f6937bc630830U,
  0x3d8de51e3dff6937U, 0x3dde4d5a3b175acbU, 0xbdc1ec54bbe30830U, 0x3d7f69373d929ff5U,
  0xbe258b4e3d846f72U, 0x3c175acb3d0de51eU, 0xbe021206bdd01cd7U, 0x3df138b4bdc1ec54U,
  0xbe0212063dfaae60U, 0x3e175acbbdaa4624U, 0x3c175acb3e5befefU, 0x3cf5f38abe7138b4U,
  0x3d892a48bde30830U, 0xbdcb62013d7f6937U, 0xbc3d317ebe0b87b3U, 0xbd20d0783dd4d7adU,
  0x3d599284bbe30830U, 0xbb975acb3d9c15a1U, 0x3b175acbbdc6a72aU, 0xbd46a72abd6c7dddU,
  0xbe2a4624bdc6a72aU, 0x3c846f72be129ff5U, 0x3d46a72a3d75f38aU, 0xbd175acb3daf00fbU,
  0xbc6308303d46a72aU, 0xbc975acb3d6c7dddU, 0x3dc1ec54U, 0x3be30830be5e4d5aU,
  0xbd20d0783da58b4eU, 0xbd0de51ebcf5f38aU, 0x3d8de51ebe2a4624U, 0x3e33bbd13daa4624U,
  0xbd929ff5bcaa4624U, 0x3d046f72bda0d078U, 0xbb175acb3c846f72U, 0x3da0d0783d2a4624U,
  0xbe3d317e3d75f38aU, 0x3d3d317ebe175acbU, 0xbe19b836be021206U, 0x3dc6a72abd501cd7U,
  0xbd6f2216bc08a5c4U, 0xbdc195803d8e5756U, 0xbd8e5756be3080c7U, 0xbde3bef0be251da2U,
  0xbd1f6c0fbda51da2U, 0x3dde0d5ebb36325aU, 0xbdbbe3edU, 0xbda51da2bc88a5c4U,
  0x3b36325abdb6325aU, 0xbdb080c73d9408e9U, 0x3dbbe3edbd2acf34U, 0x3c08a5c4bc63bef0U,
  0xbdb6325a3dc74712U, 0xbeb4c5f5bdaacf34U, 0x3c9f6c0f3b36325aU, 0x3df4d3a9bcccf8a5U,
  0xbe001b673d585bcbU, 0x3dc747123d8e5756U, 0x3d08a5c4be16e1b3U, 0xbc08a5c4be27f66bU,
  0xbbb6325abd99ba7cU, 0x3e05ccfa3d6f2216U, 0xbbb6325a3d8e5756U, 0xbd7a853cbdc19580U,
  0x3da51da2bdd85bcbU, 0xbd4195803dd2aa38U, 0x3d63bef03dccf8a5U, 0x3dccf8a53b36325aU,
  0xbe4fd16f3d2acf34U, 0xbe6697babe251da2U, 0x3d1408e9bdaacf34U, 0xbc08a5c4bcccf8a5U,
  0xbe27f66b3e3080c7U, 0xbda51da23c63bef0U, 0x3db6325abdd2aa38U, 0xbdc19580bdfa853cU,
  0xbdd2aa38bdb080c7U, 0x3c08a5c43c36325aU, 0x3d1f6c0f3d8e5756U, 0x3d585bcbbde3bef0U,
  0x3d8e5756bd63bef0U, 0xbdaacf343ce3bef0U, 0x3c88a5c43d1f6c0fU, 0x3c08a5c43d36325aU,
  0xbe36325a3d08a5c4U, 0xbe8fc3bb3bb6325aU, 0x3dc74712bc88a5c4U, 0x3d2acf34bd7a853cU,
  0xbdef22163d6f2216U, 0xbd7a853c3c36325aU, 0xbcb6325abe0b7e8dU, 0xbdef2216bd6f2216U,
  0xbd88a5c4bd8e5756U, 0x3dc74712bd36325aU, 0xbd1f6c0f3d6f2216U, 0x3e1408e9bce3bef0U,
  0x3e001b67bd7a853cU, 0xbc08a5c4bd1f6c0fU, 0x3ce3bef03db6325aU, 0x3bb6325abc36325aU,
  0xbd7a853c3d1408e9U, 0xbdef2216be1408e9U, 0x3d7a853c3d419580U, 0xbd585bcb3e02f431U,
  0x3d99ba7c3de97083U, 0xbdb6325a3e52aa38U, 0x3ce3bef0bd1408e9U, 0xbda51da2bdc74712U,
  0x3b36325abdde0d5eU, 0x3d2acf34bdccf8a5U, 0x3e113020bce3bef0U, 0x3dd2aa383d8e5756U,
  0xbcccf8a5bd6f2216U, 0xbd36325a3db080c7U, 0x3e0b7e8d3c88a5c4U, 0x3df4d3a9bb36325aU,
  0xbe585bcb3cfa853cU, 0xbe95754ebdef2216U, 0x3c88a5c4bde3bef0U, 0xbc08a5c4U,
  0x3bf7a1c4be49336fU, 0xbd31fc453de827a8U, 0xbd606a9a3d1ac51aU, 0x3d9ea3a2bdb5daccU,
  0x3d417661bd96e693U, 0x3bb9b9533c58ad8cU, 0xbe300d01bd417661U, 0xbd0b4afe3e2660b0U,
  0x3d0b4afe3df7a1c4U, 0x3b77a1c4bdc17661U, 0xbe14f7503de06a9aU, 0xbd13080cbb77a1c4U,
  0xbcaa3f373d58ad8cU, 0xbc8b4afe3d58ad8cU, 0x3d6827a8bdc17661U, 0x3cb9b953be1ea3a2U,
  0x3c77a1c4be56be48U, 0x3d606a9a3df3c33dU, 0x3b77a1c43df7a1c4U, 0x3d39b953bdb1fc45U,
  0x3d9ac51a3c58ad8cU, 0xbdb5dacc3ce827a8U, 0xbcf7a1c4bd39b953U, 0xbd7f5ed2bd8f2985U,
  0xbe057d343cc9336fU, 0xbd876c77bd39b953U, 0xbd6fe4b63d96e693U, 0x3daa3f37bde06a9aU,
  0xbd2a3f37be076c77U, 0x3ddc8c133e4d11f6U, 0xbd606a9abd93080cU, 0xbdbd97dabd7f5ed2U,
  0x3d93080cbe3f871eU, 0xbd7f5ed23de06a9aU, 0xbdcd11f63db9b953U, 0x3e0f2985bde44921U,
  0xbc9ac51abd9ac51aU, 0xbd2a3f373d038df0U, 0xbda282293cd8ad8cU, 0xbd6fe4b6bde827a8U,
  0x3caa3f37U, 0x3cf7a1c43c58ad8cU, 0x3da282293bb9b953U, 0xbe1ea3a2bc58ad8cU,
  0xbd58ad8cbd2a3f37U, 0x3d58ad8cbcb9b953U, 0xbc9ac51abe284ff3U, 0xbdc9336fbb77a1c4U,
  0xbcf7a1c4be47442cU, 0xbd8b4afe3dfb804bU, 0xbe057d343d31fc45U, 0x3e2a3f37be019eadU,
  0xbd6fe4b6bdae1dbeU, 0x3da28229bbf7a1c4U, 0x3dd4cf04bdb9b953U, 0x3bb9b953be75b280U,
  0xbbb9b953bd0b4afeU, 0xbd31fc45be1cb45eU, 0x3df7a1c43af7a1c4U, 0xbd96e693bd58ad8cU,
  0x3db9b953bd9ac51aU, 0xbdb1fc45bdb5daccU, 0xbdc17661be54cf04U, 0xbe1cb45ebd9ea3a2U,
  0x3c9ac51abe0f2985U, 0xbda28229bdd4cf04U, 0x3d49336fbcb9b953U, 0x3e076c7700000000U,
  0xbd838df0bd417661U, 0x3d39b9533d606a9aU, 0x3daa3f37be37ca0fU, 0xbdbd97dabd50f07dU,
  0x3dfb804bbda660b0U, 0xbe057d34be2a3f37U, 0x3dbd97da3d58ad8cU, 0xbde06a9abbb9b953U,
  0xbaf7a1c4be095bbbU, 0x3c58ad8cbe417661U, 0x3cb9b953be300d01U, 0xbe0f29853cf7a1c4U,
  0x3d94040abd8391d0U, 0xbd0391d0bdd1b064U, 0x3da892d23d663f2cU, 0x3d9820983e34e87eU,
  0x3c8391d03d4d93d5U, 0xbd0391d03dd9e980U, 0xbdb9050c3da059b6U, 0xbc0391d03dee7849U,
  0xbe1c3d27bd7eea83U, 0xbd0391d0bc94040aU, 0x3b8391d0be6c6a02U, 0x3d2caf61bda059b6U,
  0xbd4d93d5bda47644U, 0xbd55ccf23cb4e87eU, 0x3dacaf61bdcd93d5U, 0xbd247644be2267fdU,
  0xbdf6b166bdb0cbf0U, 0xbd5e060fbe32da37U, 0x3d455ab8bd1c3d27U, 0xbd8391d0bcd5ccf2U,
  0x3d0391d0bd7eea83U, 0x3db0cbf03dd9e980U, 0xbe3d219bbde63f2cU, 0x3d3d219b3e26848bU,
  0xbe828aac3d8391d0U, 0xbdb0cbf03e30cbf0U, 0xbdbd219bbdc13e2aU, 0x3d6e7849bca47644U,
  0x3c8391d0bdb4e87eU, 0xbd76b1663e34e87eU, 0x3d94040abdc97746U, 0x3d1c3d27bdb4e87eU,
  0xbd8bcaed3d34e87eU, 0x3c455ab8bc94040aU, 0xbd55ccf2bc8391d0U, 0x3d4d93d5bbc55ab8U,
  0xbd87ae5ebdf6b166U, 0x3d982098bc94040aU, 0xbd7eea833d8391d0U, 0x3c8391d03db0cbf0U,
  0xbe6e78493ce63f2cU, 0xbc455ab83dc13e2aU, 0x3d247644bdb4e87eU, 0x3c663f2c3d247644U,
  0xbd7eea833d87ae5eU, 0xbd7eea83bcb4e87eU, 0x3c94040a3d3d219bU, 0xbd0391d03d3d219bU,
  0x3da059b6bd5e060fU, 0x3e161251bd663f2cU, 0x3ce63f2c3b8391d0U, 0x3dc97746bdb0cbf0U,
  0xbb0391d0bd455ab8U, 0xbd2476443dc13e2aU, 0xbdb9050c3cd5ccf2U, 0x3d5e060f3dc13e2aU,
  0xbe55ccf2bd8fe77cU, 0x3c2476443e59e980U, 0xbd247644bdee7849U, 0xbdd1b0643c8391d0U,
  0xbe7acdf4bde63f2cU, 0x3d0bcaed3d455ab8U, 0x3d8bcaedbc455ab8U, 0xbb0391d03c455ab8U,
  0xbe11f5c33d7eea83U, 0x3e2267fdbde2229eU, 0xbe1a2ee0bd0391d0U, 0xbc247644be1a2ee0U,
  0xbdfeea83bd8fe77cU, 0x3d663f2c3e26848bU, 0xbdde060f3d2caf61U, 0x3c455ab83d87ae5eU,
  0xbe7eea83bca47644U, 0x3d4d93d53e1e4b6eU, 0xbbc55ab8bd6e7849U, 0xbd94040abbc55ab8U,
  0xbe4d93d53cf6b166U, 0xbc94040abdd9e980U, 0xbd8391d0bc8391d0U, 0xbc0391d03d2caf61U,
  0xbcb23204bd947f03U, 0x3b1e65593bed9806U, 0xbd323204bd59cb5aU, 0xbe20deeebc45feafU,
  0x3d323204bd9e6559U, 0xbd85a583bd99722eU, 0xbdcaf1da3e2fb86fU, 0xbdf77e5bbb9e6559U,
  0xbd85a583U, 0xbd147f03bdbc185aU, 0xbda84bafbded9806U, 0xbe2358843dc5feafU,
  0x3d8f8bd93d284bafU, 0x3d0a98ae3dd4d830U, 0xbe45feafbe80b258U, 0xbe00b258bc8a98aeU,
  0xbc45feafbd4fe505U, 0xbd80b2583cb23204U, 0xbe399ec43c9e6559U, 0xbe399ec43b9e6559U,
  0x3d9e65593d6d9806U, 0xbdc5feaf3cb23204U, 0xbdfc718600000000U, 0xbd947f033ced9806U,
  0xbd85a5833ced9806U, 0xbe0d1243be3e91efU, 0xbda35884bc45feafU, 0xbd63b1b03d0a98aeU,
  0xbd0a98aebd947f03U, 0x3d45feafbd45feafU, 0xbe235884be728b30U, 0xbd59cb5abd00b258U,
  0xbd0a98ae00000000U, 0xbd323204bdc5feafU, 0xbcd9cb5a3d947f03U, 0xbdb7252fbd4fe505U,
  0xbd1e6559U, 0xbc6d9806bc45feafU, 0xbd63b1b03d323204U, 0x3d99722e3cb23204U,
  0x3dd4d830bd777e5bU, 0xbe0d1243be43851aU, 0xbe54d8303d4fe505U, 0xbcb23204bda35884U,
  0x3d1e65593df28b30U, 0x3de3b1b03d284bafU, 0xbe34ab9abe081f18U, 0xbe4af1dabd0a98aeU,
  0xbb1e6559bbed9806U, 0xbd147f0300000000U, 0xbded98063d777e5bU, 0xbe00b258bbed9806U,
  0x3dd9cb5abd9e6559U, 0xbd00b258be081f18U, 0xbd45feafbd1e6559U, 0xbd9e6559bd80b258U,
  0xbdd9cb5abc6d9806U, 0xbded9806be37252fU, 0xbe85a5833dcaf1daU, 0x3e12056ebdd4d830U,
  0xbd0a98aebd8a98aeU, 0xbd147f03bced9806U, 0xbe147f03be9d288eU, 0xbd147f03bc8a98aeU,
  0xbd147f033cd9cb5aU, 0xbdf77e5bbe235884U, 0xbe16f89900000000U, 0x3c1e6559be032beeU,
  0x3c45feaf3bed9806U, 0x3b9e65593d4fe505U, 0xbdb7252f3d1e6559U, 0x3d59cb5abdb7252fU,
  0xbd45feafbe00b258U, 0x3dd9cb5abe487845U, 0xbe9d288e3e081f18U, 0x3e081f18be1bebc4U,
  0x3db23204bd99722eU, 0x3d9e65593d4fe505U, 0xbda35884be081f18U, 0xbc6d98063e05a583U,
  0x3d4de3dcbd1763c8U, 0x3cda00533cfe55b6U, 0xbdc1c766bd1763c8U, 0x3d9763c83e0b4751U,
  0x3d5a00533de61cc9U, 0x3cfe55b63cfe55b6U, 0x3d0b4751bd35aaf0U, 0x3d9a6ae53ca98e79U,
  0x3cb5aaf0bdac9597U, 0xbd8b47513d78477bU, 0x3d9d72033dc4ce84U, 0x3d8b4751bc5a0053U,
  0xbb41c766bd661cc9U, 0x3dcadcbfbd35aaf0U, 0xbdaf9cb4bc853916U, 0xbd0b47513d53f218U,
  0x3d0539163d9d7203U, 0x3b91558c3ca98e79U, 0x3d5a0053bd78477bU, 0x3d3bb92b3ac1c766U,
  0x3cf239403da6875cU, 0xbcb5aaf03da6875cU, 0x3dda00533b91558cU, 0xbc41c7663d6c2b04U,
  0xbdec2b043e053916U, 0xbd3bb92b3d945caaU, 0x3c41c7663d0b4751U, 0x3c9d72033d91558cU,
  0x3db5aaf03d41c766U, 0x3cfe55b6bc9d7203U, 0x3c853916bd053916U, 0x3d600e8ebdcadcbfU,
  0xbd23803e3d5a0053U, 0x3dfe55b63d600e8eU, 0x3e1d72033d5a0053U, 0xbdf8477bU,
  0x3d945caa3e2e1926U, 0xbd884034bb91558cU, 0x3dcde3dcbdda0053U, 0xbccde3dc3d1d7203U,
  0xbdbec048bb91558cU, 0xbd8539163d35aaf0U, 0x3da6875cbd2f9cb4U, 0x3c8539163b41c766U,
  0x3d35aaf03c298e79U, 0x3d35aaf03d298e79U, 0x3dc7d5a1bcb5aaf0U, 0xbd1763c83dda0053U,
  0xbdd6f935bcfe55b6U, 0xbd661cc9be145caaU, 0x3ccde3dcbde00e8eU, 0x3da6875cbe2503cdU,
  0x3e0b47513da98e79U, 0xbe2503cdbda98e79U, 0x3de923e7bda6875cU, 0x3d0b47513d1763c8U,
  0xbd8e4e6f00000000U, 0x3bf239403cda0053U, 0xbd9763c8bd884034U, 0xbc5a00533d78477bU,
  0xbc298e793cb5aaf0U, 0x3cb5aaf0bac1c766U, 0xbce61cc9bdef3222U, 0x3dcadcbfbc5a0053U,
  0xbe1ef5923ca98e79U, 0x3c9d72033d3bb92bU, 0x3e4043d73daf9cb4U, 0x3d7e55b6be35aaf0U,
  0xbd9a6ae53dda0053U, 0xbe18e7563d053916U, 0x3bc1c7663cda0053U, 0xbdb5aaf03d2f9cb4U,
  0xbc9d72033dc7d5a1U, 0xbd945caabbc1c766U, 0xbdf23940bd47d5a1U, 0x3c8539163d884034U,
  0xbdf8477b3e1bee74U, 0xbe0ccae03d3bb92bU, 0xbdbec048be12d91bU, 0x3ca98e79bd7e55b6U,
  0xbdc5f27b3ba3d180U, 0x3d962ab63cb1784bU, 0x3d6ee6dbbada6cabU, 0x3d75ba40bdbf1f16U,
  0x3daaa4e63c5a6cabU, 0xbdc5f27bbdf923f3U, 0x3cda6cabbcbf1f16U, 0xbc75ba40be539946U,
  0xbc3f1f163d01b086U, 0x3d384bb03d9cfe1bU, 0xbda067cebe1cfe1bU, 0x3d384bb03d851a38U,
  0xbe3a008abe01b086U, 0xbde140103d8bed9eU, 0x3dfff7583dbf1f16U, 0xbdeee6dbbc75ba40U,
  0xbd75ba40bd4cc5e0U, 0x3d962ab63d2aa4e6U, 0x3de813763da3d180U, 0xbd7c8da6bd539946U,
  0xbd7c8da6bba3d180U, 0xbce81376be03655fU, 0x3df5ba40bc0883ebU, 0x3cbf1f16bd0883ebU,
  0xbdd399463d3f1f16U, 0x3d5a6cabbd75ba40U, 0xbdc288c8bdeee6dbU, 0xbda067cebd8bed9eU,
  0xbde4a9c3bdd702f8U, 0xbe28f00cbdae0e98U, 0x3dbbb5633de14010U, 0xbe1475dcbd0f5750U,
  0xbe01b0863cb1784bU, 0xbd0883ebbe162ab6U, 0x3e28f00c3ba3d180U, 0x3dbbb563bd8bed9eU,
  0xbda3d180bd539946U, 0x3ce81376bcccc5e0U, 0x3dccc5e03dd702f8U, 0x3c23d1803d851a38U,
  0x3db1784b3dbf1f16U, 0x3d0f57503d31784bU, 0xbdeb7d28bd45f27bU, 0xbc8883ebbd851a38U,
  0xbdc5f27bbc8883ebU, 0xbe1475dcbdd702f8U, 0x3d6ee6db3d01b086U, 0xbde1401000000000U,
  0xbdb4e1fe3d0f5750U, 0x3e0bed9e3da73b33U, 0x3d75ba403cda6cabU, 0xbdb84bb0bd8bed9eU,
  0x3cb1784b3ada6cabU, 0xbada6cab3d92c103U, 0x3dd702f83df5ba40U, 0x3cda6cabbd3f1f16U,
  0xbc75ba40bd614010U, 0xbc75ba403cb1784bU, 0xbc0883eb3dae0e98U, 0x3e4b11073d5a6cabU,
  0xbde14010bdc288c8U, 0xbe23d1803ca3d180U, 0xbd31784b3da067ceU, 0xbe1475dc3db4e1feU,
  0x3d4cc5e0bbda6cabU, 0x3e1b4942bd31784bU, 0x3d8883eb3e221ca7U, 0x3dda6cabbe1cfe1bU,
  0xbcb1784b3c5a6cabU, 0xbd4cc5e03de14010U, 0x3e17df8fbda067ceU, 0x3e0bed9e3deee6dbU,
  0x3d7c8da6bca3d180U, 0xbd3f1f16bd31784bU, 0xbe1cfe1b3bda6cabU, 0x3e58b7d23dd39946U,
  0x3da73b33be199468U, 0xbb5a6cab3d23d180U, 0x3d384bb03d539946U, 0xbd384bb0bde14010U,
  0x3e05c58ebe8162c0U, 0x3caf70343d6cd779U, 0xbd8c59c3bc759d15U, 0x3d26aa983db835d0U,
  0x3d87f6f53dd286a4U, 0xbe28dbffbd49c108U, 0x3d759d15bce411ddU, 0x3e0c59c3be10bc91U,
  0x3d6411ddbd26aa98U, 0xbdc0fb6cbdb3d302U, 0x3c759d153c2f7034U, 0xbd039427bd6cd779U,
  0xbc5286a4bbd286a4U, 0xbd5b4c41bd1de4fbU, 0xbddb4c41bd9de4fbU, 0xbe1750c6bd839427U,
  0x3d87f6f5be2f7034U, 0xbc8c59c33dbc989eU, 0x3c8c59c33b8c59c3U, 0xbd99822dbd5286a4U,
  0x3e6f08e0bd99822dU, 0xbd759d15bd6cd779U, 0xbd5b4c41bda247c9U, 0x3e05c58ebdf59d15U,
  0x3de411dd3d26aa98U, 0xbde874abbe4e23d6U, 0xbcc0fb6c3d90bc91U, 0xbda247c9bcaf7034U,
  0xbbd286a43d2f7034U, 0xbd7e62b1bd8c59c3U, 0xbd5286a4be591adaU, 0xbe5d7da8bc2f7034U,
  0x3e0c59c3be05c58eU, 0xbd8c59c33d99822dU, 0xbdce23d63d6411ddU, 0x3d2f7034bd6411ddU,
  0x3e10bc913d5286a4U, 0xbe3eca05bdd6e973U, 0xbd3835d03df59d15U, 0xbd759d15bc9de4fbU,
  0xbda247c9bd9de4fbU, 0xbd99822dbe56e973U, 0x3da247c9bdb835d0U, 0xbdaf70343d90bc91U,
  0xbb8c59c3bc759d15U, 0x3e039427bd7e62b1U, 0xbd40fb6cbdf59d15U, 0xbde874ab3d40fb6cU,
  0xbc2f7034bdf9ffe3U, 0xbd5b4c41bd951f5fU, 0xbd8394273d1de4fbU, 0x3cf59d153d151f5fU,
  0x3d5286a43d1de4fbU, 0xbe201662bd6411ddU, 0x3daf70343da6aa98U, 0x3da247c93d87f6f5U,
  0xbd5b4c413b8c59c3U, 0xbde411ddbe07f6f5U, 0x3dc0fb6c3dd6e973U, 0xbd6411dd3d6cd779U,
  0x3e10bc913db3d302U, 0xbcc0fb6c3c0c59c3U, 0xbd90bc91be3eca05U, 0xbe432cd33c759d15U,
  0x3bd286a4bd5b4c41U, 0xbd2f70343c9de4fbU, 0xbc5286a4bd6cd779U, 0xbd6cd7793dc9c108U,
  0x3e8b410fbda247c9U, 0xbe1bb394bbd286a4U, 0x3d951f5f3d2f7034U, 0x3e05c58ebe05c58eU,
  0x3e0c59c3bd40fb6cU, 0xbdb835d0be56e973U, 0xbdb3d302bdd286a4U, 0xbd90bc91bd9de4fbU,
  0x3d5b4c413dc55e3aU, 0xbc8c59c3bdab0d66U, 0xbd3835d0be19822dU, 0xbde874ab3c5286a4U,
  0x3c6a98f33e0cc22bU, 0x3e0107523c8cc22bU, 0x3d86e4bfbcbbad8fU, 0xbc6a98f33dd32341U,
  0xbd2ff2b6be158e4eU, 0xbde4bb86be476868U, 0x3d476868bd6a98f3U, 0x3db5d0233daa154aU,
  0xbcea98f33de4bb86U, 0x3dc76868bd2437ddU, 0xbe158e4e3d8cc22bU, 0x3ca437ddbd8cc22bU,
  0xbd7653ccbd7653ccU, 0x3dcd45d4bc0cc22bU, 0x3ddede1abd987d04U, 0xbe476868bd929f98U,
  0x3dc18afb3d987d04U, 0x3e0fb0e1bdf653ccU, 0x3bbbad8f3e38bed9U, 0x3d187d043dd900adU,
  0x3c6a98f33d86e4bfU, 0xbe6d87a9be158e4eU, 0xbd8107523d5ede1aU, 0xbd187d04bbbbad8fU,
  0xbdcd45d43db5d023U, 0xbd010752be214927U, 0xbca437dd3dd32341U, 0xbdb5d0233d6a98f3U,
  0xbd187d04bd0cc22bU, 0x3b3bad8f3ddede1aU, 0xbd929f983d5ede1aU, 0xbd5ede1abcd32341U,
  0xbdbbad8f3c8cc22bU, 0x3d0cc22bbdbbad8fU, 0xbd2ff2b63df653ccU, 0x3e06e4bf3ca437ddU,
  0xbdbbad8f3bbbad8fU, 0xbeba3634be2ff2b6U, 0x3dd323413db5d023U, 0x3d8cc22b3d987d04U,
  0xbd8107523dfc3138U, 0x3d6a98f3bd8cc22bU, 0xbda437ddbe1e5a71U, 0xbc0cc22bbd010752U,
  0xbd0107523d8cc22bU, 0x3d187d04bd929f98U, 0x3e09d375be2d0400U, 0xbe3bad8fbc3bad8fU,
  0xbd8cc22bbc8cc22bU, 0xbdc18afbbe2ff2b6U, 0x3d3bad8f3dfc3138U, 0x3daff2b6bde4bb86U,
  0xbd5323413d3bad8fU, 0xbe2437ddbe0fb0e1U, 0x3bbbad8fbc6a98f3U, 0xbd8cc22bbc0cc22bU,
  0xbc6a98f3bc6a98f3U, 0xbe158e4eU, 0xbe010752bdf653ccU, 0x3d987d043d5ede1aU,
  0xbd0107523d0cc22bU, 0x3d0107523db5d023U, 0xbd6a98f3bddede1aU, 0xbd476868be158e4eU,
  0xbe418afb3dc18afbU, 0xbd5ede1abe32e16cU, 0x3dd900ad3b3bad8fU, 0x3dd32341bdb5d023U,
  0xbc0cc22bbc8cc22bU, 0xbe70765fbd929f98U, 0xbcbbad8fbc0cc22bU, 0x3e010752bdd32341U,
  0xbd476868bdc76868U, 0xbc8cc22b00000000U, 0x3cd323413cbbad8fU, 0xbddede1a3d2ff2b6U,
  0xbda437dd3e03f609U, 0xbe4a571e3cbbad8fU, 0xbd5ede1abe4d45d4U, 0xbc8cc22bbd2437ddU,
  0xbccc529b3de82f53U, 0xbd1de2bebcb9bf76U, 0xbcf178e63d7ac279U, 0xbcdee5c0bc14992bU,
  0xbe08fd34bd4c529bU, 0xbdd59c2ebd430908U, 0x3c820606bd39bf76U, 0xbe47add23d9de2beU,
  0xbd94992bbde38a8aU, 0xbdc7add2bcdee5c0U, 0x3d559c2e3bdee5c0U, 0x3cb9bf763d559c2eU,
  0x3ca72c503d8ff462U, 0x3e376d113e3075e3U, 0x3d0b4f983bdee5c0U, 0x3d8ff462bde38a8aU,
  0x3d559c2e3d86aacfU, 0xbda72c50be0ff462U, 0xbe2035223da72c50U, 0x3e16eb90bc14992bU,
  0xbe787014bde82f53U, 0x3d9de2be3ca72c50U, 0xbc5ee5c0be04586aU, 0xbe6f2681bd1de2beU,
  0x3cb9bf76bde82f53U, 0x3d14992b3d559c2eU, 0x3c14992b00000000U, 0xbdd0f764bdbe643fU,
  0x3dbe643fbcf178e6U, 0x3df178e63d1de2beU, 0x3dbe643fbd020606U, 0xbc820606bd9de2beU,
  0x3d14992b3dabd11aU, 0xbd1de2bebcf178e6U, 0xbe16eb903dbe643fU, 0x3dd59c2e3df178e6U,
  0xbe80dcd3bcf178e6U, 0x3d020606bd272c50U, 0xbe06aacfbe7d14ddU, 0xbda287873db9bf76U,
  0xbe0b4f983d7178e6U, 0x3d8b4f98bd020606U, 0xbe0206063b94992bU, 0x3d94992bbc39bf76U,
  0xbb14992bbcdee5c0U, 0xbd86aacf3bdee5c0U, 0x3db9bf763d7ac279U, 0x3df178e6bdecd41dU,
  0x3dfac2793d14992bU, 0x3dbe643fbd272c50U, 0xbdf61dafbd7ac279U, 0x3d8ff462bcf178e6U,
  0xbdecd41dbdc30908U, 0x3d7ac279bc94992bU, 0xbcf178e6be832f38U, 0xbe682f533d4c529bU,
  0x3cdee5c0bdfac279U, 0xbbdee5c03d9de2beU, 0xbd39bf7600000000U, 0xbdda40f7bd3075e3U,
  0xbbdee5c03d272c50U, 0xbccc529bbbdee5c0U, 0x3da287873d820606U, 0xbdd0f7643c14992bU,
  0x3d993df43d993df4U, 0xbd86aacf3d430908U, 0xbe761daf3cdee5c0U, 0x3e297eb53ccc529bU,
  0xbe936ff93c5ee5c0U, 0x3ccc529b3de82f53U, 0x3d0b4f98be2bd11aU, 0xbe57ee923bdee5c0U,
  0x3d14992bbde38a8aU, 0x3da72c50bb14992bU, 0x3c820606bb14992bU, 0x3db075e33c820606U,
  0x3dcc529bbd993df4U, 0x3d5ee5c0bc39bf76U, 0x3dcc529b3dcc529bU, 0xbd682f533d86aacfU,
  0xbdb4ae653d3e30d6U, 0x3d6a9190bc3182eaU, 0x3d3e30d6bc7d9672U, 0xbe0b79253dc7b347U,
  0x3dae576fbe19bccfU, 0xbe364422be0ea4a0U, 0x3e06b7edbd182712U, 0xbdb182eabe05222fU,
  0x3ddab829bdd78caeU, 0xbd91d01bbcbe30d6U, 0x3d982712bd3182eaU, 0x3d2b2bf4U,
  0xbd05222fbc982712U, 0x3cb182ea3ca4d4feU, 0x3d11d01b3d643a9aU, 0xbe3182ea3d884daaU,
  0xbbfd96723b982712U, 0x3ce43a9abe0d0ee3U, 0x3da4d4fe3d578caeU, 0x3ca4d4fe3c8b7925U,
  0x3d884daabd182712U, 0xbe4949043c4adec2U, 0x3dc7b347bd81f6b4U, 0xbdd135b8be299636U,
  0x3df0e8863d94fb96U, 0x3acadec2bc643a9aU, 0x3da4d4febe11d01bU, 0xbdce0a3d00000000U,
  0x3d4adec2bd884daaU, 0xbd8ea4a0bbfd9672U, 0xbdea91903c982712U, 0x3d1e7e083df41401U,
  0x3d0b7925bd7d9672U, 0xbde76615bcfd9672U, 0x3d91d01b3d4adec2U, 0xbde43a9a3cbe30d6U,
  0xbd4adec2bd3182eaU, 0xbe2013c5bdfa6af7U, 0xbd3182eabccadec2U, 0x3d91d01bbe1ce84aU,
  0x3d9b528d3da4d4feU, 0xbc182712be103a5eU, 0x3d3182ea3bfd9672U, 0x3b982712bdae576fU,
  0xbd85222fbd3182eaU, 0x3dd46133U, 0xbbcadec23d11d01bU, 0xbacadec23dc15c51U,
  0xbde766153d0b7925U, 0xbe1ce84abd8b7925U, 0x3d5de3a43cf0e886U, 0xbdbe30d6bd37d9e0U,
  0x3e0060f7bcbe30d6U, 0xbe0b7925be0d0ee3U, 0xbdf0e886bd91d01bU, 0x3d1e7e08bddab829U,
  0x3e4487cc3d85222fU, 0xbdb4ae653d37d9e0U, 0x3de10f1fbe494904U, 0x3d05222f3d773f7cU,
  0x3d643a9abd982712U, 0xbd1827123dd46133U, 0x3bcadec2bd05222fU, 0x3b4adec23c182712U,
  0xbdf73f7c3da1a983U, 0xbcfd96723b982712U, 0x3c7d9672bc8b7925U, 0x3d3182eabdb4ae65U,
  0x3e084daa3d4487ccU, 0xbdfd9672bdcadec2U, 0x3cb182ea3de43a9aU, 0xbc982712be09e368U,
  0x3dc7b347bd9e7e08U, 0xbbfd9672bc4adec2U, 0x3e37d9e0bc4adec2U, 0xbe0d0ee33d578caeU,
  0xbd773f7c3ca4d4feU, 0xbd884daabbfd9672U, 0x3d24d4fe3dd78caeU, 0xbd81f6b4bd643a9aU,
  0xbba6081f3d86e699U, 0x3de44b2bU, 0x3d3068a13dbac923U, 0x3c26081fbd26081fU,
  0x3ce44b2bbca6081fU, 0x3e3068a13d06e699U, 0xbdbac9233d3ac923U, 0x3d644b2b3e044e79U,
  0xbe3d61433da0d7deU, 0x3c91471b3ccf8a27U, 0x3ba6081fbccf8a27U, 0xbe11471b3cbac923U,
  0xbd86e6993d4f8a27U, 0x3dc529a5bb26081fU, 0xbd4f8a273d96775cU, 0x3df3dbeebd81b658U,
  0x3dd9eaa93c4f8a27U, 0xbdca59e63d59eaa9U, 0xbd91471bbd644b2bU, 0x3ca6081fbc91471bU,
  0x3d26081f3bf90c2eU, 0x3b26081f3dd4ba68U, 0xbda0d7debddf1aeaU, 0xbdb068a13ddf1aeaU,
  0xbe73dbeebdcf8a27U, 0x3d9ba79d3dcf8a27U, 0x3d59eaa9bddf1aeaU, 0x3cf90c2ebd86e699U,
  0xbc790c2ebdfe3c6fU, 0xbd790c2e3dcf8a27U, 0x3da6081fbdab3860U, 0x3db068a1bcf90c2eU,
  0x3d6eabadbd4529a5U, 0xbdb068a1bcbac923U, 0xbdf3dbee3d790c2eU, 0xbdb068a1bd96775cU,
  0x3da0d7debc790c2eU, 0x3bf90c2e3da0d7deU, 0xbdd4ba68be13df3cU, 0xbe20d7debc26081fU,
  0xbe3598e2bcbac923U, 0xbddf1aea3e06e699U, 0xbe01b6583d6eabadU, 0xbb26081fbba6081fU,
  0xbdcf8a273c4f8a27U, 0x3da0d7de3e236fffU, 0xbd81b658bdd9eaa9U, 0xbd790c2e3d91471bU,
  0x3dd4ba683dd4ba68U, 0x3d96775cbd4f8a27U, 0xbcf90c2e3d96775cU, 0x3db598e2be236fffU,
  0xbce44b2b3d3ac923U, 0x3e4cf206bb26081fU, 0xbd26081fbe4cf206U, 0x3cf90c2e3e097ebaU,
  0xbea4bc0f3d26081fU, 0xbd9ba79d3dbac923U, 0xbe3068a1bdc529a5U, 0xbe01b658bd6eabadU,
  0xbe3ac9233c26081fU, 0x3dca59e63da6081fU, 0xbd1ba79dbd1ba79dU, 0xbe0eaefbbd4f8a27U,
  0xbd11471b3d4f8a27U, 0xbdcf8a273c91471bU, 0xbe6c138c3d1ba79dU, 0xbc4f8a27bd06e699U,
  0xbce44b2bbda0d7deU, 0x3cf90c2e3d4f8a27U, 0x3cbac923be236fffU, 0xbdcf8a27bcbac923U,
  0xbe3d6143bdb598e2U, 0xbd59eaa9bdd4ba68U, 0xbe11471bbdfe3c6fU, 0xbdd9eaa93ba6081fU,
  0xbda6081fbdbac923U, 0x3e06e699bdca59e6U, 0xbd3068a13c26081fU, 0xbd96775cbd8c16daU,
  0xbe092de03d99a405U, 0xbc4cdab2bd4cdab2U, 0xbaea1e82bdc93238U, 0x3baf96e23c4cdab2U,
  0xbe01dcecbe1f20bcU, 0x3de2cd8e3da49d73U, 0x3dc589be3c4cdab2U, 0xbdd0832c3d36e7d6U,
  0x3d6a1e82bd2f96e2U, 0xbdb6e7d6bdd7d420U, 0xbd716f763e2f96e2U, 0x3dccdab2bd925311U,
  0x3dba90503d83b129U, 0xbd8008af3e14274eU, 0x3d83b129bd78c06aU, 0xbc9253113d8759a3U,
  0xbde676083b6a1e82U, 0xbe15fb8bbd36e7d6U, 0x3dba9050bd8eaa97U, 0x3d3e38cabdc93238U,
  0xbb6a1e823d62cd8eU, 0x3d3e38cabda49d73U, 0x3d6a1e82bc6a1e82U, 0xbdf517f0bdd0832cU,
  0x3da845ed3d9d4c7fU, 0xbdabee673dabee67U, 0x3dbe38ca3d6a1e82U, 0x3d3e38cabe107ed4U,
  0x3db6e7d6bd125311U, 0xbdba9050bd9d4c7fU, 0x3cea1e82bdaf96e2U, 0xbe0759a33c83b129U,
  0xbe50832cbe092de0U, 0xbdc589be3d95fb8bU, 0x3e2dc2a4bda49d73U, 0x3c6a1e82be058566U,
  0xbe2a1a2abd78c06aU, 0xbd6a1e8200000000U, 0x3e0eaa97bd8b021dU, 0xbe62cd8ebe684a45U,
  0x3e0cd65abd03b129U, 0xbd3e38cabdabee67U, 0x3de2cd8e3dc1e144U, 0x3d542ba6bdd42ba6U,
  0x3d19a4053dabee67U, 0x3dbe38ca3c925311U, 0xbdd7d420bcbe38caU, 0xbd925311bd4589beU,
  0xbe125311bdd0832cU, 0xbd3e38ca3ddb7c9aU, 0xbc2f96e2bda845edU, 0xbc4cdab2bdf517f0U,
  0xbe107ed4bd8eaa97U, 0xbda845edbd8eaa97U, 0x3de676083d2f96e2U, 0xbda845ed3bea1e82U,
  0xbdd42ba63c2f96e2U, 0xbd125311bc83b129U, 0xbc83b129bd83b129U, 0x3d2f96e2bd9d4c7fU,
  0x3d20f4f93d3e38caU, 0x3c2f96e2bd2f96e2U, 0xbdba90503d4589beU, 0xbe19a4053d6a1e82U,
  0xbe15fb8bbd542ba6U, 0xbd03b1293d36e7d6U, 0x3c125311bc925311U, 0xbda0f4f9bd925311U,
  0xbe2f96e2bd2845edU, 0x3d2f96e2bd3e38caU, 0x3dbe38ca3d8b021dU, 0xbe092de0be59a85dU,
  0x3dea1e823d8b021dU, 0xbda0f4f9bd9d4c7fU, 0x3d99a405bd5b7c9aU, 0x3e0008afbe0cd65aU,
  0x3e2a1a2abbea1e82U, 0xbca0f4f93ca0f4f9U, 0xbc4cdab2be14274eU, 0xbe2f96e23e19a405U,
  0xbdcaa27dbe00f309U, 0x3cb0d848bcce51a9U, 0x3bebcb0a3db836a0U, 0x3e0a28f83dbbe5ccU,
  0xbe27a259be4aa27dU, 0x3da21b973e18e5a8U, 0xbb6bcb0a3da21b97U, 0xbe69f374bbb0d848U,
  0xbd84a2363cfa87bbU, 0xbd04a2363d935ee6U, 0xbbebcb0a3d9e6c6bU, 0xbc135ee63d8fafbaU,
  0xbda21b973d3f94f8U, 0x3aebcb0abcebcb0aU, 0x3c935ee6bd8c008eU, 0x3d6bcb0abd1abd3fU,
  0xbd80f3093d46f350U, 0x3d84a2363d0c008eU, 0xbd970e12bd8c008eU, 0x3da979efbd80f309U,
  0x3d1abd3fbe48cae7U, 0xbd6bcb0a3dd5b001U, 0x3db836a03d84a236U, 0xbe0679ccbb6bcb0aU,
  0x3cce51a93d1abd3fU, 0xbd135ee63dfa87bbU, 0x3db0d8483cbf94f8U, 0xbdbf94f83d221b97U,
  0xbd9abd3f3cebcb0aU, 0x3d6bcb0a3da21b97U, 0x3e0a28f8bd646cb2U, 0xbd3836a0U,
  0xbd55b001bd2979efU, 0xbd9abd3f3c135ee6U, 0xbe04a2363d5d0e59U, 0x3e04a236bd3f94f8U,
  0xbdf6d88ebd80f309U, 0xbd970e123d3f94f8U, 0x3da5cac33d885162U, 0x3b6bcb0abdf6d88eU,
  0xbd7329623cdd0e59U, 0x3debcb0abcbf94f8U, 0xbc6bcb0abdce51a9U, 0xbcce51a93cb0d848U,
  0xbdf329623bb0d848U, 0xbdd95f2d3d1abd3fU, 0x3cebcb0a3cce51a9U, 0xbe04a2363d84a236U,
  0x3c4e51a93d0c008eU, 0x3da979efbdad291bU, 0xbd80f309bd0c008eU, 0x3d885162bdfa87bbU,
  0xbd646cb2be18e5a8U, 0x3c84a2363e365f0aU, 0x3dbf94f8bcdd0e59U, 0x3d0c008ebd935ee6U,
  0xbdebcb0abdd200d5U, 0xbcbf94f83d7a87bbU, 0x3dbf94f83d4e51a9U, 0x3d3836a0bd2979efU,
  0xbda5cac3bd84a236U, 0xbdc344243da21b97U, 0x3de0bd86bd6bcb0aU, 0xbbb0d848bd935ee6U,
  0xbe0a28f8bd221b97U, 0x3db0d848bcce51a9U, 0xbc4e51a9bda21b97U, 0x3e30d848be46f350U,
  0xbdb48774be15367cU, 0x3c84a2363dbf94f8U, 0xbaebcb0a3aebcb0aU, 0xbdb836a0bda979efU,
  0xbe55b001bdfa87bbU, 0x3ddd0e593cbf94f8U, 0x3d646cb2bdc6f350U, 0x3cb0d848bd5d0e59U,
  0xbda979efU, 0x3d30d848bdfe36e7U, 0x3e3a0e363d5d0e59U, 0xbe2979ef3d2979efU,
  0xbce77b1bbda365f5U, 0xbce77b1bbd7be7daU, 0x3c2365f5bc95c821U, 0xbd8ef9373c95c821U,
  0x3d082a4cbd3ea19eU, 0xbccc3f733e10acf1U, 0xbd95c8213d7518f0U, 0xbd84c2d73e26cd6aU,
  0x3d84c2d7bad9dd47U, 0xbd37d2b43db103caU, 0xbdeae2913c7518f0U, 0x3dc8d7fdbd15c821U,
  0x3d6e4a063c082a4cU, 0x3c882a4c3d530e5dU, 0x3e58298cbca365f5U, 0xbd15c821bba365f5U,
  0x3d0ef9373dfbe7daU, 0x3e0b91c13c082a4cU, 0xbde77b1bbd59dd47U, 0xbdd30e5d3c082a4cU,
  0xbce77b1b3d2365f5U, 0x3da6cd6a3e030f1dU, 0xbd3103cabc082a4cU, 0x3cb103ca3ca365f5U,
  0xbcd9dd473c882a4cU, 0x3dbb3a293c882a4cU, 0xbdb7d2b4bd37d2b4U, 0xbcd9dd47bcf518f0U,
  0x3dd30e5dbdd9dd47U, 0x3d15c8213dd30e5dU, 0x3e030f1d3d7be7daU, 0xbdff4f4f3d992f96U,
  0x3db7d2b43dfbe7daU, 0xbda365f53d2365f5U, 0xbc59dd47bd815b62U, 0xbd6e4a06bda365f5U,
  0x3ad9dd473c082a4cU, 0xbd677b1bbcbea19eU, 0xbe3103ca3d9c970bU, 0x3d6e4a06be1ae350U,
  0xbe2365f53d8ef937U, 0xbce77b1b3da365f5U, 0x3db46b3f3d6e4a06U, 0x3db103cabdaa34dfU,
  0x3dd675d2bde413a6U, 0xbd84c2d7be2519b0U, 0x3e2f500f3d2365f5U, 0xbdf1b17b3dad9c55U,
  0xbddd44bcbda365f5U, 0x3c3ea19ebdd30e5dU, 0xbce77b1b3c2365f5U, 0x3e1c970b3d4c3f73U,
  0xbd60ac31bdc20913U, 0xbcd9dd473dee4a06U, 0x3d3ea19ebd015b62U, 0x3d6e4a06be067692U,
  0xbd3ea19ebc082a4cU, 0xbccc3f733e2d9c55U, 0xbc59dd47bd1c970bU, 0x3de77b1bbd015b62U,
  0xbd37d2b43d815b62U, 0x3bd9dd47be288125U, 0x3e177bdb3d6e4a06U, 0xbe0b91c1bd8b91c1U,
  0xbdeae2913e141466U, 0x3e0d457cbe2a34dfU, 0xbe288125U, 0x3dd9dd473d7be7daU,
  0x3d84c2d7bd95c821U, 0xbda6cd6a3c2365f5U, 0xbdf1b17bbd8ef937U, 0x3c95c8213c882a4cU,
  0xbdff4f4fbd3ea19eU, 0x3cf518f03de0ac31U, 0x3d015b6200000000U, 0xbd3103ca3d2365f5U,
  0x3d4570883ca365f5U, 0xbca365f5bbd9dd47U, 0x3c7518f0bb59dd47U, 0xbdd675d2bd677b1bU,
  0xbd50f0bdbdc11c90U, 0x3e0036a2bdfd42d6U, 0x3e2633dc3da17435U, 0x3e217435bc8b4b29U,
  0xbdc7716f3dae1df3U, 0xbd249ea43d8820b9U, 0x3ce3ef5abd8e7598U, 0x3d97f4e6bdcdc64dU,
  0xbde3ef5a3dcdc64dU, 0xbde719c9bd0b4b29U, 0xbdda700bbd9b1f56U, 0x3dc7716f3e0036a2U,
  0x3e1b1f563d17f4e6U, 0x3dc7716fbd3df220U, 0xbd57459cbbca9bdeU, 0xbd2af383bd709918U,
  0xbe1cb48ebd57459cU, 0x3d8b4b29be32dd9aU, 0x3d94ca773e2c88bbU, 0x3d94ca773d04f64aU,
  0x3d76edf73e11a008U, 0xbd50f0bdbda49ea4U, 0xbcd7459c3dc11c90U, 0x3dbac7b13d249ea4U,
  0xbd81cbda3e2af383U, 0xbcd7459cbd94ca77U, 0xbdaaf383bdb472d2U, 0xbcfd42d63dc446ffU,
  0x3d04f64a3c8b4b29U, 0xbd63ef5abd3df220U, 0xbda49ea43cfd42d6U, 0x3d6a4439be0036a2U,
  0xbe4906a6bdca9bdeU, 0xbdbac7b1bda49ea4U, 0x3e1b1f563e411c90U, 0x3cb148623d3df220U,
  0xbdc446ffbcf09918U, 0xbd6a4439bd97f4e6U, 0x3c97f4e6bcbdf220U, 0xbd97f4e6bddd9a7bU,
  0xbe0ce0603dca9bdeU, 0x3dbac7b13d94ca77U, 0x3ca49ea4bdcdc64dU, 0xbb97f4e6bc7d42d6U,
  0xbbca9bde3d3df220U, 0xbd9b1f563dd0f0bdU, 0xbc97f4e6bd81cbdaU, 0x3d11a008bd379d41U,
  0xbd17f4e63d17f4e6U, 0xbd81cbdabe23096dU, 0x3bca9bde3d17f4e6U, 0xbaca9bde3c17f4e6U,
  0xbdc7716f3e0b4b29U, 0xbded6ea8bcbdf220U, 0x3c7d42d63aca9bdeU, 0x3dc7716fbd63ef5aU,
  0x3c7d42d6bd3df220U, 0x3cb14862bd3df220U, 0xbe01cbda3d50f0bdU, 0xbd17f4e6bcd7459cU,
  0x3d91a008bc17f4e6U, 0xbd8e7598bd8820b9U, 0x3da49ea43daaf383U, 0xbbca9bdebe01cbdaU,
  0xbd7d42d6bcbdf220U, 0xbcbdf220bdd0f0bdU, 0xbd379d413dc446ffU, 0xbaca9bde3cfd42d6U,
  0xbd4a9bde3ca49ea4U, 0x3cf09918bd11a008U, 0xbcca9bde3e09b5f1U, 0x3da17435bda7c914U,
  0xbdda700b3d8e7598U, 0x3ddd9a7b3dc11c90U, 0x3bfd42d6bdda700bU, 0x3dbac7b13dd0f0bdU,
  0x3d8b4b293d76edf7U, 0xbdf099183bfd42d6U, 0xbd76edf7bd314862U, 0xbd1e49c5bdc7716fU,
  0x3d957684bc676d2fU, 0x3c86ffb13dd42416U, 0x3d1a48ca3d23ed57U, 0xbdf111bcbdf5e402U,
  0xbd10a43dbcc0dafcU, 0x3e1a48cabe0968d4U, 0xbd822d6a3d1a48caU, 0x3d86ffb1bde76d2fU,
  0xbd10a43dbdf111bcU, 0x3dec3f75bd9a48caU, 0x3e0bd1f7bdca7f89U, 0x3c676d2f3d822d6aU,
  0xbd06ffb1bd5dc8a2U, 0xbe06ffb1bd7ab648U, 0xbe0bd1f7bd4a7f89U, 0xbd8bd1f7be65040cU,
  0xbd1a48ca3c676d2fU, 0x3cad91e3bdddc8a2U, 0x3da8bf9d3dff888fU, 0xbe0e3b1abc9a48caU,
  0x3d9576843dad91e3U, 0x3db73670be28bf9dU, 0x3c1a48ca3c9a48caU, 0x3e17dfa7bd2d91e3U,
  0x3d822d6a3c40dafcU, 0xbd542416bdbc08b6U, 0xbb1a48ca3dad91e3U, 0xbdfab6483ce76d2fU,
  0xbd1a48cabd957684U, 0x3c86ffb1be0e3b1aU, 0xbdf5e402bd5dc8a2U, 0x3d7ab648be80f8d9U,
  0x3d7111bc3dfab648U, 0x3dad91e33be76d2fU, 0xbd957684bdca7f89U, 0xbd10a43d3d9a48caU,
  0xbdad91e33d957684U, 0xbd90a43dbe40dafcU, 0x3b1a48cabe1f1b10U, 0x3e04968e3df111bcU,
  0x3da8bf9d3c86ffb1U, 0x3d9f1b10bd7ab648U, 0xbcd42416bbe76d2fU, 0x3d9a48cabcc0dafcU,
  0x3cfab648be51baf3U, 0xbe1a48cabe157684U, 0xbe3736703c1a48caU, 0x3d373670bdad91e3U,
  0xbdf5e4023e0e3b1aU, 0x3c676d2fbd5dc8a2U, 0xbdb2642a3d06ffb1U, 0xbd4a7f893d9a48caU,
  0xbc40dafcbd542416U, 0xbb9a48cabdd8f65cU, 0xbd9a48ca3ce76d2fU, 0x3df5e4023dbc08b6U,
  0x3b1a48cabdf111bcU, 0x3c9a48cabd542416U, 0x3df111bc3d5dc8a2U, 0xbdddc8a23cfab648U,
  0x3c40dafcbe40dafcU, 0x3d7111bc3d23ed57U, 0xbd86ffb1bdad91e3U, 0xbcc0dafcbe991438U,
  0xbc86ffb1bd23ed57U, 0x3d90a43d3dfab648U, 0xbcc0dafcbdb73670U, 0xbe0bd1f7bce76d2fU,
  0x3d9f1b10bd40dafcU, 0x3e1cb1edbe3e71d9U, 0xbd2d91e3be23ed57U, 0x3d06ffb13dbc08b6U,
  0xbc1a48cabe0968d4U, 0xbb9a48cabd957684U, 0x3da8bf9d3e022d6aU, 0x3cfab64800000000U,
  0xbd40dafcbdfab648U, 0xbcc0dafc3b9a48caU, 0xbd06ffb1bd23ed57U, 0x3da3ed57be218433U,
  0xbcf97c1e3e8404e1U, 0x3c2652bfbc95b0dfU, 0xbbc7967e3cf97c1eU, 0x3de0894ebd68da3eU,
  0x3e436e073d893777U, 0x3d15b0dfbbc7967eU, 0xbd0d5fef3d893777U, 0x3d95b0df3d2652bfU,
  0xbe1e01cfbe17c51bU, 0x3d58385e3daa7b37U, 0x3d15b0dfbd050effU, 0xbd15b0df3cb6f49fU,
  0x3cc7967ebdc36e07U, 0xbdbb1d173daea3afU, 0x3da22a473c850effU, 0x3e118867bd712b2eU,
  0x3de8da3e3e81f0a5U, 0xbdf553a63d9e01cfU, 0x3bc7967e3daea3afU, 0xbbc7967ebdf97c1eU,
  0x3cf97c1ebc050effU, 0xbb050eff00000000U, 0x3c050eff3d0d5fefU, 0x3d58385ebb850effU,
  0x3d3f458fbd850effU, 0xbd95b0df3b850effU, 0xbda22a47bd9e01cfU, 0x3db2cc273d80e687U,
  0xbdb6f49f3d2652bfU, 0xbe118867bd4fe76eU, 0x3c95b0dfbd47967eU, 0x3e1e01cf3e222a47U,
  0x3d2652bf3cd8385eU, 0xbcb6f49f3d58385eU, 0xbd15b0dfbb850effU, 0x3d712b2ebc050effU,
  0x3da652bf3d850effU, 0xbdf97c1e3e050effU, 0x3bc7967ebbc7967eU, 0xbdd40fe6bdaa7b37U,
  0xbde8da3ebdaea3afU, 0xbdcbbef6bd99d957U, 0xbd0d5fef3ddc60d6U, 0xbdf12b2ebd15b0dfU,
  0xbd80e6873d1e01cfU, 0xbe0f742bbb850effU, 0xbd60894ebd80e687U, 0x3df97c1e3e093777U,
  0xbd8d5fefbcd8385eU, 0x3de8da3ebdcfe76eU, 0xbe222a473db2cc27U, 0x3ce8da3ebd2ea3afU,
  0x3c47967e3bc7967eU, 0xbdbf458f3e050effU, 0xbb850eff3e139ca3U, 0xbded02b6be00e687U,
  0x3c68da3ebe139ca3U, 0xbd80e687bdf553a6U, 0xbe4fe76ebda22a47U, 0x3cd8385e3d918867U,
  0xbd80e6873daa7b37U, 0xbe243e83bc2652bfU, 0x3d2ea3af3d47967eU, 0x3c68da3e3e0f742bU,
  0xbdf553a63d797c1eU, 0xbbc7967e3d95b0dfU, 0xbd893777bdaa7b37U, 0xbd3f458fbda652bfU,
  0x3d95b0df3ce8da3eU, 0xbd47967ebd58385eU, 0x3e36f49f3ded02b6U, 0xbd2652bfbdf553a6U,
  0x3e2a7b373d58385eU, 0xbd2652bfbde0894eU, 0xbdcfe76ebdb2cc27U, 0xbd15b0df3df553a6U,
  0x3db6f49f3db6f49fU, 0x3c050eff3c95b0dfU, 0x3e19d9573de8da3eU, 0xbd4fe76e3dcfe76eU,
