/**
  ******************************************************************************
  * @file    network_3_data_params.c
  * @author  AST Embedded Analytics Research Platform
  * @date    2026-06-17T18:02:37+0800
  * @brief   AI Tool Automatic Code Generator for Embedded NN computing
  ******************************************************************************
  * Copyright (c) 2026 STMicroelectronics.
  * All rights reserved.
  *
  * This software is licensed under terms that can be found in the LICENSE file
  * in the root directory of this software component.
  * If no LICENSE file comes with this software, it is provided AS-IS.
  ******************************************************************************
  */

#include "network_3_data_params.h"


/**  Activations Section  ****************************************************/
ai_handle g_network_3_activations_table[1 + 2] = {
  AI_HANDLE_PTR(AI_MAGIC_MARKER),
  AI_HANDLE_PTR(NULL),
  AI_HANDLE_PTR(AI_MAGIC_MARKER),
};




/**  Weights Section  ********************************************************/
AI_ALIGNED(32)
const ai_u64 s_network_3_weights_array_u64[508] = {
  0x3dae283cbe3f27d6U, 0x3e45cc723e8ebd8aU, 0xbe123089be139479U, 0x3e856916bc21d0a0U,
  0xbe2aa814be1ff4faU, 0xbe61383e3d7cded0U, 0xbe4b54b3be2035b2U, 0xbca3fe10be3e0e1eU,
  0x3e7f10943e300cb0U, 0x3e7cafb83e0c3160U, 0x3e5508a83e686338U, 0xbdc0f896be2a75f5U,
  0xbdf97598bddb490aU, 0xbe9011133e1b9bc0U, 0xbe919defbe042ae7U, 0x3db348d4be5cb484U,
  0xbe2bd9383e38f652U, 0xbe3300093c458d20U, 0xbb266c003de9d4c0U, 0x3e7ab0cc3e85b04eU,
  0x3e0bfc2abe5055c0U, 0x3d9aeec4be6d47edU, 0x3e015c303c4c4240U, 0xbe9561f83dc9b550U,
  0x3de6b2b43e91a832U, 0xbe8abe703de06bf4U, 0x3d171300bdb44c54U, 0x3e8b8634bc280f60U,
  0x3e3a30c6bd8e9fd4U, 0x3e117e3ebe7b6408U, 0xbe72ab7e3e2ff7ecU, 0xbdc8c998be5c743cU,
  0x3e6e6d4cbe90560aU, 0x3e3507de3e37a16cU, 0x3e1496aebe92f168U, 0x3e9207ee3dfe57b8U,
  0x3e2fa76ebdcb2172U, 0xbe2efb423e918818U, 0x3e2e0af4be533742U, 0xbe7fd89cbd2be0e8U,
  0xbe81045e3d4e8810U, 0x3e95c450be6130e4U, 0x3e5032b23e687400U, 0xbe23c0473e060b98U,
  0x3e71e5203dc66eacU, 0xbe0bccb83e7187f4U, 0x3c1b83c0be7253e2U, 0x3d4d49e8bc95c970U,
  0xbe5985bd3e4a8096U, 0x3d94513cbd85ea88U, 0xbc7e68803de8bd0cU, 0x3d95c528be8a1664U,
  0x3e44e362bd8a4f34U, 0x3e4433b8bd420b78U, 0xbe82b527be865131U, 0xbd1072d83e26a4f8U,
  0xbe319c07be0a8c49U, 0xbe941c8e3e391f86U, 0x3e359e34be7fd11bU, 0xbe1f857cbe28f6ffU,
  0x3dad8070be32cdf4U, 0x3cdb6c50be49f308U, 0x3e408232be53362eU, 0xbe8eacdb3dbd20ecU,
  0x3da61770be787186U, 0xbd94e7f0be614148U, 0xbe856ea2be66bb60U, 0xbdd85f9ebdd557aaU,
  0x3dde0b6c3e616200U, 0x3d9713e83e5f0948U, 0xbe24367bbe8e0eadU, 0xbe88ff433d0ab230U,
  0x3dca2b14bde53502U, 0xbe5bddd33e90f822U, 0xbe43623ebe3c786eU, 0xbe76ec3c3e7ac0d8U,
  0x3df0d75cbe3173ebU, 0xbe2769babcda93d0U, 0x3d0d19e8be83820eU, 0xbd7a1ad43e60fe10U,
  0xbe5362ae3e087286U, 0xbd8e5a843e156552U, 0x3d2deaf0be7f30a2U, 0xbd91a3ca3e585e64U,
  0x3e6b3d24bc887d60U, 0xbe7cafc6be782b89U, 0xbce28070be1fbeecU, 0x3e248ff23e156690U,
  0x3e0028ba3d54a328U, 0x3e6b94243d390cd0U, 0xbe886c513e946572U, 0xbe51cef33e5bc2e0U,
  0x3e7c2d1c3e81ca90U, 0x3dc2def4be019161U, 0xbe73d796be91b191U, 0x3e88246ebe4b6cc3U,
  0xbe223d17bd7beb28U, 0x3ddadec43e4a3f0cU, 0x3e66cf143e180c1aU, 0xbded3048bd28d468U,
  0xbe0231b53e7effdcU, 0x3cfd2b803e0270e4U, 0x3d942d443e9342ccU, 0xbd6d44d8be940819U,
  0xbd7b51183da268e4U, 0x3d9d6630be28b668U, 0xbe951cc43e8ab32aU, 0xbd081b28be67e3ceU,
  0xbd6ada3cbe64e61aU, 0x3e901700bd1c6fc8U, 0x3e9493f43e86560aU, 0xbe300bfebe787596U,
  0x3ce0d4203bcf53c0U, 0xbe48c324bdd9d994U, 0xbe26e43ebcf675b0U, 0xbe8c3cbcbe45da68U,
  0x3d882b003c8e7300U, 0xbdbcf06ebe7aacd9U, 0x3dfe64343de46e64U, 0xbdc2a0e2be7b35bcU,
  0x0U, 0x0U, 0x0U, 0x0U,
  0xbe31017c3e35b2f4U, 0x3d4549583c9d67f8U, 0x3df79e603df23114U, 0xbde8f077be03c384U,
  0xbe3685e23c25dc40U, 0xbabf88803cecb290U, 0x3d40ab10be012be5U, 0xbe501c72bdf4a7c3U,
  0xbe03a832be551623U, 0x3dffed343dd27ac0U, 0xbc6a1ae03c950ae8U, 0x3e2dbba43e2da25cU,
  0xbe614f3f3e3eb44cU, 0x3aa8b980be5e5e81U, 0x3cb546b0bc24e240U, 0x3e0f2bd63b09ef00U,
  0x3d8470943d3aea90U, 0x3d35e9f83e2414f2U, 0x3e49d2d23e600b7aU, 0x3dd36dc83e5cdbd4U,
  0xbe0dbabfbc649b10U, 0xbda4f502bd6b1a64U, 0x3ceada603d665940U, 0x3e08df103c8e4b70U,
  0xbde4750e3ca61fc8U, 0x3e08f040be25771cU, 0xbc667670be54c4d7U, 0x3e58c73c3e41b646U,
  0xbc882a303cbb6c88U, 0xbd42f6d43e3e9976U, 0x3e1d87eebd595144U, 0x3c40f5703d5d0170U,
  0x3dbd8b583df1f2d4U, 0x3e0fc0943dc767fcU, 0x3d9a69f83d95d4d0U, 0x3b6b5fc03dc71b88U,
  0x3dbba208be59bef0U, 0x3e50016abba0b160U, 0x3e313e583e1cd4a0U, 0xbe1ec879bd66ce24U,
  0xbe4a8575bb928120U, 0xbdfa7f21bda5fe60U, 0xbb120400bd50c7acU, 0x3dfdadd83e4f3552U,
  0x3db46f30be006deaU, 0xbe3c115e3dba6ab8U, 0xbe596569be138b30U, 0xbe08d02dbdeb7787U,
  0x3d5a9ac03db84620U, 0x3e33adaa3dd1d344U, 0x3e06e9e0bc14a010U, 0x3e4bbf80bdc29df8U,
  0x3d39c920be26bd5dU, 0xbe0afebbbe38b641U, 0xbce6d5d0bd768748U, 0x3cdd6a903e52bed8U,
  0xbd7852783e56d76eU, 0xbdde14813e11d14cU, 0xbd2896a03e346276U, 0xbe2354da3db0a048U,
  0xbd1ba868be32d056U, 0xbd9e4c7cbd84d59eU, 0x3e38f03ebd105504U, 0x3cb05e40bdac036aU,
  0xbe05064cbd95475aU, 0xbc8f16b8be0a1456U, 0xbe09554a3c2dfa00U, 0xbe19d2b9bdfb63f0U,
  0x3e0b0d20be5eb3d6U, 0xbdf4efe0bdc54dacU, 0xbe47de073e613976U, 0xbd9621743e297ef4U,
  0xbe193f20be64736cU, 0x3dd06fbcbe06e6a2U, 0xbdfd00043cb92cc0U, 0xbd6da34c3e41b3d6U,
  0x3b4988403c04dea0U, 0xbe344d0abe4b1b46U, 0x3e17d0d43e1d108aU, 0xbdd914f13b054880U,
  0x3e5542aa3e16a6e4U, 0x3db85e14bdb3ae8cU, 0x3ddb48843e0ced3cU, 0x3e5e14bebdd9edb3U,
  0x3e5789683e44ea40U, 0xbceab2d03d409a50U, 0xbe1d2d583df452a8U, 0x3c434c40be5e7a8aU,
  0x3e5faf823e55644aU, 0xbd17343cbdfbbcbcU, 0xbe55631dbe38a1ecU, 0xbcac23a83e4be9f2U,
  0xbdae898e3d847858U, 0xbd98bd083dff99b8U, 0x3e58b6463d2ce270U, 0xbdcacb03bdc2748cU,
  0x3de15694bd1a05ecU, 0x3cf36a303e2d45f2U, 0xbe62f2713cbc0320U, 0xbd571a783bb44000U,
  0x3e2836763d743ae8U, 0xbe26ad88bdacf352U, 0x3e5918f43d5ec3f0U, 0xbdac038ebc995e38U,
  0xbda682e43e195fe2U, 0xbc0fda40be63259eU, 0xbd825f9cbc856c10U, 0x3d8e05d4bd052c0cU,
  0x3e5635e43d95f010U, 0xbe497aa43e158552U, 0x3d07d8703af54300U, 0x3e00e87ebe5303a1U,
  0xbe5dba473db334e0U, 0xbe539c243e11f508U, 0xbdeec206bd8e632eU, 0x3d8cc4483be4eca0U,
  0x3e5629de3de7db50U, 0x3e2ffc00bd973428U, 0x3d5895703e5f148cU, 0xbdf79f613cd5dd58U,
  0xbe15882fbdfef0c9U, 0x3e3ec64cbd2dad5cU, 0x3e312de63d7dc858U, 0xbd55441c3e3f0e42U,
  0x3d50c1583e2826baU, 0xbe286b87bd2e9bf4U, 0xbe5dc4503ca38700U, 0x3d8d40dcbd292658U,
  0xbe317d8bbd5fa53cU, 0xbe313f08bdfcd031U, 0x3c8395b0bd8fc4d8U, 0xbdecf4953e32cb9aU,
  0x3e5358b6be3f2892U, 0x3e3de19e3e514f3eU, 0x3e0b39e83d037c70U, 0xbdd40906be5f8338U,
  0xbd9ef6cabe61dce0U, 0xbe30fc133d5a8340U, 0xbe3a64da3e0b96e8U, 0xbe2a2950bdd766f9U,
  0xbdd498bfbcdab578U, 0x3b8c1840bd6f4a24U, 0xbdbb63743e02b9bcU, 0x3e0986c8be23e256U,
  0x3db02b503e1bb5ecU, 0xbd5c9a5cbd9f6954U, 0xbe0fad5c3da0d1bcU, 0x3cc2c098be41f0a9U,
  0xbd99ca0e3dd5d300U, 0x3d24aeb83e17ef3eU, 0xbdf1f0eebe250ae5U, 0x3da352143bdefba0U,
  0xbd8d50d03db45ef0U, 0x3dea69283e4e24e8U, 0x3e16501a3e573430U, 0x3e603de6be3c2c13U,
  0x3db0ddb03e29fb0aU, 0xbe162602be11764dU, 0x3d604280be37874cU, 0xbd5dc35c3e4d89b6U,
  0x3d806f903e10f1f8U, 0x3e31df42bd88cdc6U, 0x3d4015f0bd9c507aU, 0x3df699403d976944U,
  0xbe01d738bdd969e2U, 0x3e2c4ba03dbe5510U, 0xbe1d616e3e056436U, 0xbda293fe3d72c7b8U,
  0xbc89e7f03ddcbc74U, 0x3dba403cbe368f71U, 0xbe46f7193e1da30cU, 0x3c465910bdafdcccU,
  0x3cfd1ac0bd784094U, 0x3dfb2ce8bd8b2950U, 0x3b619f803d2dd340U, 0x3d8edc603c9dd330U,
  0x3e4747143e3b3d84U, 0xbe114010bdd8f290U, 0xbdbcc846393c0c00U, 0x3d921118bdc3ca78U,
  0x3e02865c3e26b7acU, 0x3c3dd2e03d7d7720U, 0xbe358c7a3aa8f100U, 0xbe11ab28bce2b8b8U,
  0x3d890c603e38f7fcU, 0x3dc1bd94bdca4154U, 0x3d511f98be4faf0bU, 0xbbe85b00be139edcU,
  0x3deb78983d8c96a0U, 0xbe61e54abdb78fe4U, 0xbd9a05983df35cc4U, 0x3d2257583e4879d0U,
  0x3e3aadb2bcee67e8U, 0x3d1213983e4c299eU, 0xbdbce896be1c8074U, 0x3e15a87e3e08f460U,
  0xbe42b49cbe23801aU, 0xbe48098cbe2945efU, 0xbe553eb1be2a22bfU, 0xbc253a60be559b9aU,
  0x3d1701083bb7f0e0U, 0xbdde44c6bd8dde0cU, 0x3d9e51ccbe54bfc8U, 0x3dd1be143d80c7c8U,
  0xbe06d97abdfe6988U, 0xbe11b1f03dcbf59cU, 0xbe19ca523bbe61c0U, 0x3c70dc70bd0353bcU,
  0xbc3a3f00bbf15540U, 0xbe2119e23b999620U, 0x3d8e6e6c3e64062aU, 0xbe10ce4e3c55b410U,
  0xbdf212553e29d9ccU, 0x3d88d3d03e0ff69cU, 0xbcc24bc8bd9f4bfcU, 0xb9c50000bde61664U,
  0x3e241718bc4ed0c0U, 0xbe620601be507216U, 0xbcf41fc0bd450f88U, 0x3cdba5c03e0d4ae4U,
  0x3e4e0e82be5da49aU, 0xbe54f332be336c66U, 0xbe187590be3565c4U, 0xbd9be2123e1f50e0U,
  0x3dfc8e7c3da6131cU, 0xbe34af78bdf301dfU, 0x3dd9f2343c236900U, 0xbe59c94b3da6b1bcU,
  0x3e197a08be3ef2cfU, 0xbe033a76bc6cc7c0U, 0x3c1577a0bcfd0b58U, 0x3e2b831cbe282e14U,
  0xbd2180d8be304714U, 0xbd18b0343d8badb0U, 0xbcc71df8bcd88bf0U, 0xbd1696c4bce9ab48U,
  0xbe10efce3e2e354cU, 0x3d603f103e629272U, 0xbd3b8cf8be52d192U, 0x3e1624a43e452d26U,
  0x3e07c5b83deeefd4U, 0xbe2641d93e4c55b8U, 0xbe345aeb3da39f88U, 0x3e5a3190be1aa474U,
  0xbe03397c3db20cc4U, 0x3e32ca50bd005660U, 0x3c196520bd7ad094U, 0x3d3e92c0bde36ed9U,
  0xbe1e175d3dc0bf1cU, 0xbde59424bd0b0540U, 0x3cb3a7c83d757068U, 0x3e3e47a63e1a840aU,
  0x3d5705703d42fe28U, 0x3e55d1043e1fb912U, 0xbd137cf4bc840178U, 0x3d8d1d38bdc771d8U,
  0xbced22b03d469a18U, 0xbe2a90093e43dea6U, 0x3d92a0b4be30dd2dU, 0x3e2c910c3e2b31feU,
  0xbe24a8f13ccd5680U, 0x3e335a5c3db4f2d4U, 0xbe5c1cadbe3538f9U, 0x3ddf1d903e083910U,
  0xbd85ec983e054d40U, 0x3e0080ccbe5f36eaU, 0xbd97caecbe1372a5U, 0x3d54e9003dff99f8U,
  0x3db35234be31e464U, 0xbe1210ea3e35ffb8U, 0x3e15e88c3e1a08b2U, 0x3c67d3103e0155baU,
  0xbe1f85fe3e23a2f8U, 0x3d96733c3e135b40U, 0xbd61a578bd990698U, 0xbd4cb4b83ceb6090U,
  0xbdfea5fdbe09d7cbU, 0x3db4d3143d673b38U, 0xbd02232c3b209dc0U, 0xbd240afc3d551598U,
  0x3c9bb6d8be4d74f5U, 0xbde5c250bdf80d50U, 0x3df3a84c3e619dd4U, 0xbd10f0883cf014b0U,
  0xbe468b52be64a398U, 0xbe4afe18bdd1474bU, 0xbe2b319ebd44c3a0U, 0xbe5dc1fa3c817c98U,
  0x3e2043e43e19815eU, 0xbe41ff393c39dcd0U, 0xbe162878bdf69497U, 0x3d5c6058be229998U,
  0x3d884fccbda36464U, 0x3e4fc518bc63a4e0U, 0xbdba52a03e294ca2U, 0x3e5806fa3e571c0aU,
  0x3e0694583e5eb520U, 0xbd8e3056bdb875d8U, 0x3e02fa663e1da1ceU, 0x3e53f7fe3e4ff46aU,
  0xbe641959bcd26c90U, 0x3e2f00603e2b6efcU, 0x3dfe5e14be13b078U, 0x3e3c0a283e5ab7b4U,
  0x3e0c51663da399dcU, 0xbda83d943d5a16e0U, 0xbe58bfadbc982a38U, 0xbd1b74d03e1ba890U,
  0x3e50b242bd538d10U, 0xbe2f91513dd95620U, 0xbe0e5d563d8b0314U, 0xbe1b26c23d3d4598U,
  0xbdb1d854be30bb9fU, 0xbe10441a3e2d4a6aU, 0xbdce30e63dcb58c8U, 0x3ba45ba0be43d31fU,
  0x3e4557543e19993eU, 0xbddd3cf2bc688910U, 0x3dec6f843e4f48fcU, 0x3ddf704cba1eaa00U,
  0x0U, 0x0U, 0x0U, 0x0U,
  0x0U, 0x0U, 0x0U, 0x0U,
  0xbd2cddc0be0164faU, 0xbee321643edba7c2U, 0x3e834c9a3eb5ef28U, 0x3edc049abdc7da9cU,
  0xbe25af14be4bd246U, 0x3e9b14583e1d0ed8U, 0x3d03b0303c127240U, 0x3e5189543ec2f66eU,
  0x3e8bebf0be158a72U, 0xbe7ed4c8becaca88U, 0x3effaa7abeb314a2U, 0xbe63ebb2bec5d2eeU,
  0xbef8e518bea4f959U, 0x3ebc4400befd00bdU, 0xbed1db723e8932ecU, 0xbe383410be0301fcU,
  0x3ed537e03eef7fb8U, 0xbe25f2a03dec82a0U, 0x3d8e5fb8beb0d572U, 0x3e595e103db00d90U,
  0xbe8315863d97b390U, 0x3eca95663ed53c80U, 0xbedb2c0bbea8d6baU, 0x3eb49e06bea5d0b2U,
  0xbe2c7604bd959e14U, 0xbea8aed7bea6c36aU, 0x3df2de78be44e27aU, 0x3ea4d870bc006180U,
  0x3e69a60cbedf87c9U, 0xbf0230ae3ecbbbc0U, 0x3ef4bdcabe60ae5cU, 0xbdbf998c3e81e21cU,
  0xbe9327b6be98bfbcU, 0xbd9e1d60be94b51cU, 0xbdbbccb03c327f00U, 0x3e6d7284be2663b2U,
  0xbd855d583ed26a6cU, 0xbe192484be93e0dcU, 0xbe9fc55a3e699260U, 0x3e286d243e867b6aU,
  0x3e9bdd98be9e7bb5U, 0xbe20bae2bea04972U, 0xbf01a84bbd3ed248U, 0x3eda8436bed87e2aU,
  0xbe66e14ebebda480U, 0xbdc08318bd8845b4U, 0xbe5c9f023e242618U, 0xbe9d949b3ebaceacU,
  0x3e852a4ebdd3a2ccU, 0x3ebafcf23def9988U, 0xbefd4c6d3ecf05baU, 0xbe0933983e0883ccU,
  0x3e42bbb0be9619daU, 0x3d367d803edbdd80U, 0xbef618abbcd19b50U, 0x3e4c6198bec8f660U,
};


ai_handle g_network_3_weights_table[1 + 2] = {
  AI_HANDLE_PTR(AI_MAGIC_MARKER),
  AI_HANDLE_PTR(s_network_3_weights_array_u64),
  AI_HANDLE_PTR(AI_MAGIC_MARKER),
};

