/**
  ******************************************************************************
  * @file    network_3_data_params.c
  * @author  AST Embedded Analytics Research Platform
  * @date    2026-06-26T02:37:09+0800
  * @brief   AI Tool Automatic Code Generator for Embedded NN computing
  ******************************************************************************
  * Copyright (c) 2026 STMicroelectronics.
  * All rights reserved.
  *
  * This software is licensed under terms that can be found in the LICENSE file
  * in the root directory of this software component.
  * If no LICENSE file comes with this software, it is provided AS-IS.
  ******************************************************************************
  */

#include "network_3_data_params.h"


/**  Activations Section  ****************************************************/
ai_handle g_network_3_activations_table[1 + 2] = {
  AI_HANDLE_PTR(AI_MAGIC_MARKER),
  AI_HANDLE_PTR(NULL),
  AI_HANDLE_PTR(AI_MAGIC_MARKER),
};




/**  Weights Section  ********************************************************/
AI_ALIGNED(32)
const ai_u64 s_network_3_weights_array_u64[15299] = {
  0xbe12c70b3e9a7d8fU, 0x3e15695bbde88cf1U, 0xbd4d1c0d3e1b0de1U, 0xbd6a32fb3dd79ea3U,
  0x3db367cb3cedb1f9U, 0x3dec9b6dbd28887eU, 0xbcb4ae853e1c8af8U, 0xbe1659fe3e57e80cU,
  0xbe274a303d76ac09U, 0xbde4b5ef3d7df18cU, 0xbd3519783e6dd9fdU, 0xbde4cf503ae6cdb8U,
  0x3d2d00bc3e6cfd68U, 0xbd2d7f5e3ca326d8U, 0xbddef6503e5942acU, 0x3d572a293e96cb17U,
  0x3d91d84e3d880cd6U, 0x3d417370bd815e61U, 0xbc80fe9d3e970517U, 0xbce84622be27d3f3U,
  0xbc91cea23dce666cU, 0xbe18cd493e59d826U, 0x3e369485bd864729U, 0xbcd425543dae1b1dU,
  0xbe21d8ee3d8ba8faU, 0xbdcca2293d3e817fU, 0x3d25704fbd3c2f1aU, 0xbe00ca373e8793c9U,
  0xbd16aaeb3d43f64dU, 0xbd043ed7bdfda838U, 0xbdaeb4e23e30abc6U, 0xbcd6086abdad3540U,
  0xbe49a88c3e9e60faU, 0x3d0c7d2b3eb50bf8U, 0x3e1923aa3daea87fU, 0x3d4832a2bcab1ecbU,
  0x3dea2be73deef94fU, 0xbe278114bc8aff9cU, 0x3e0e3137bd8a4d5bU, 0xbe07e37a3d1102fcU,
  0x3da7b5d1bda07522U, 0x3e450198bdbb0d82U, 0xbdb4ebf33dc6d22dU, 0xbe2639543e075eb3U,
  0x3dea22e2be1069e5U, 0xbddf10eb3e6aac76U, 0xbdfdb8a43dcda9a8U, 0x3dab62673d6b0284U,
  0xbcf704d03e04f7efU, 0x3b56d5163e144cb7U, 0xbddb63d93d80a993U, 0xbea6000bbe2ca5afU,
  0x3df29daa3dedbeedU, 0x3e2824a63db12683U, 0xbecbc816be6e3c13U, 0x3dd7365d3e25a203U,
  0x3d9f37233d744b68U, 0xbe84d89d3d1fa284U, 0xbdd9a36e3d5628c8U, 0x3c1c583a3e150037U,
  0xbc169352bd90bd97U, 0x3e48299e3e802a0eU, 0x3e513510bd16da3dU, 0xbdd2494fbaca26bcU,
  0x3d6a62b63ced12fcU, 0xbe15c256be2a1db0U, 0xbd96b1bc3e190510U, 0x3dd4ee4b3e8a7ca2U,
  0x3d8d8203bdeeceb3U, 0xbe1fcb2a3e0cecc2U, 0x3cd56cff3e8944d5U, 0x3ccf3dcc3df5611dU,
  0xbe51f3b23e1a80adU, 0x3df792fabba823e6U, 0xbd3dd662be42e497U, 0xbd97cfd43de66860U,
  0x3ddb83a43db95f4fU, 0xbe802889bd3f88ebU, 0xbdad53213d48bee3U, 0xbdd92726bd43bbfdU,
  0xbdd200d8bded5ea8U, 0x3d2ecae43dde0eb8U, 0x3deabf8a3bef2d2aU, 0xbe5d0c95be7cb705U,
  0x3e46bfc5bd17df59U, 0xbd0a5f7c3ddc806bU, 0xbeaddeda3ba1f818U, 0x3d122d03bbd43a0dU,
  0x3e29e3abbd5e7d94U, 0xbeffdd0dbe451283U, 0xbc30480c3e8d357bU, 0xbe11e0373d7e8886U,
  0x3c7cd849bc4acbedU, 0xbe5a4d823e3b40fbU, 0xbdd53ad33e05e064U, 0xbe48f254bdc561cbU,
  0xbe83b5dbbd006687U, 0xbde3990ebdee6d22U, 0xbe1e2a9d3c9e76fdU, 0xbe2b7fee3d974c4aU,
  0xbe8909ed3e03dc2aU, 0x3c4dfee03d2fa331U, 0xbe9cee20bcec9dc6U, 0xbd7e40b9bbd34053U,
  0xbdcf7a263a7a9096U, 0x3d23e5e4be8ac52eU, 0xbe10ac933d95d220U, 0x3da188a4be126763U,
  0xbb0aeaa3bdd9aa82U, 0xbdcc0c4cbd7ff6b3U, 0x3ceab7df3e088e43U, 0x3d50c899be478b94U,
  0x3de7e9a5be1f750aU, 0x3c0b365bbd884192U, 0xbe05465bbe11cf77U, 0xbe46cb9bbd8ab14fU,
  0x3e675d6f3cbed992U, 0x3d18db2cbe9652a3U, 0xbe342ce23da52723U, 0x3e33016fbe330b65U,
  0xbe1e695e3d1bdd4aU, 0xbe5947cb3e2542c2U, 0x3e6308693eafa26eU, 0x3d586541bddcae90U,
  0x3dd0ec10be159303U, 0x3d8091583ec3cb91U, 0xbe19dc6b3dafc795U, 0xbe3ca3dfbe0793c3U,
  0xbce1a04b3df014d1U, 0x3dc774e2be0b2662U, 0x3d045e563d831e83U, 0x3e176c21bdd19e45U,
  0x3db2e112baea91a7U, 0x3e404bcfbd15de23U, 0xbaec46d63d035e6dU, 0x3d10d6563d12213cU,
  0x3e51ee60be0a17d2U, 0x3941c26ebca5e8d7U, 0xbd1c033b3c3cbfe4U, 0x3e305874bd612615U,
  0x3dfcd0afbe071b21U, 0xbbc4b37ebb35de8cU, 0x3e13173ebe403d12U, 0xbe339a19bd9f14ebU,
  0x3d977b43bd8b8d10U, 0xbdf72785bde909b0U, 0xbdf890babe557987U, 0xbbd1e5143df5767eU,
  0xbe3139fabe27d5dbU, 0xbe174e8bbe33a7aeU, 0xbde49f8dbe932bc0U, 0xbda57bbebb6d900aU,
  0xbe6f6cf5bc51001dU, 0x3c9a31abbdc30bc1U, 0xbd97a22bbdd29a16U, 0xbd92a6a43ca990f4U,
  0x3ddcbf0abe11b67aU, 0x3d67243a3cfc2c22U, 0xbe6e964339f6aa09U, 0x3c977cf8be17386aU,
  0x3d802058bdcef00eU, 0xbddced98bcabb110U, 0xbda99606be24f357U, 0xbdef079c3cd2cd47U,
  0xbe798af8be0e452dU, 0xbd02eb5c3dbb15dcU, 0x3d98ba3dbe247f54U, 0x3c519a43bca6d52cU,
  0xbdebe4293e3f18f2U, 0x3e6224a43d8de7e8U, 0xbdefedee3d85d548U, 0xbe2265e63e1cece8U,
  0xbd11fd613e2324e2U, 0x3ce8cec43e14472aU, 0x3dc88d193bf6aad6U, 0xbe6850abbd7cfe12U,
  0xbccd3fac3df695a2U, 0x3df44adc3e2e1edaU, 0xbe262a433d4eab61U, 0x3e4ebb563cf5f652U,
  0x3e3f6d953e6743c5U, 0x3d88088b3e7ba2e3U, 0x3d8a0ccabe048556U, 0xbd981c09bd5dabbaU,
  0x3cbff5de3e6811bdU, 0xbdaf4551bd56c90fU, 0xbd9333423e04470cU, 0x3dc140723e527824U,
  0x3e458eef3b59fd0bU, 0x3e1a5bc23e0b6721U, 0xbe3ee257bc401426U, 0xbde3d3f93e2fd423U,
  0xbd5d8ea8bda0c9efU, 0xbdab4a4f3dbaa985U, 0x3e3ca4d63e2b3a97U, 0x3afce0bc3cd08844U,
  0x3d85a87e3d8f2979U, 0x3e74e164bed67021U, 0x3d97256ebdb6a1e2U, 0x3d8a3736bdc6fd31U,
  0x3e8049e4be8668f1U, 0xbe1ecaf33d2be661U, 0x3e387358be1be169U, 0x3e3d6472be01d94eU,
  0xbd89f86fbd32b5eaU, 0xbdac2a593d9fc971U, 0x3e0b3235be0c11cfU, 0xbdfdb6513e034f6bU,
  0xbda09aa73d015a93U, 0x3e3e96edbe5aa7cdU, 0xbdd5e380bd612b22U, 0xbd91febbbd752544U,
  0xbd9d935b3c0da841U, 0xbe8ccf13be777c99U, 0x3d44b2a7be5f606eU, 0xbe01d9303d0e9900U,
  0xbe97c58d3db72babU, 0x3c66f660be4995faU, 0x3d4878c2bcea5145U, 0xbd2dbd063e2ab20bU,
  0x3dc5ea973d8243fcU, 0xbb81331c3ce8cbc6U, 0xbe378bbe3b5f32ddU, 0xbdcb51493d1426b5U,
  0xbda8e6b1bd0a5c11U, 0xbd8d903f3e390972U, 0x3da20d21be105635U, 0x3e84a3103e4aae8eU,
  0x3d98eaae3d086821U, 0x3d26eec93d49e376U, 0x3e7712193e0920c1U, 0xbdcc2a82bd2ad3b7U,
  0x3c8ceb29be62f33dU, 0x3dced0113e17c5fcU, 0xbddaa562bd33a913U, 0xbc86f637be5f6035U,
  0x3e3460a23e22a10dU, 0x3dedf7783d2a19a7U, 0x3d2f21b3be399364U, 0xbc9c064d3e6493a3U,
  0xbdbef3b3be3f8930U, 0x3d5fa61bbe2bacc8U, 0xbd905c4f3e175896U, 0x3dfaf008bd81f2d0U,
  0xbdd658acbdde7cddU, 0xbe1fe0d0bd890558U, 0x3d05224ebe59a751U, 0x3e08f9dbbe594723U,
  0xbd657f7d3d34caddU, 0x3e12ab33be4bb18fU, 0x3e059f57be3bfcbaU, 0xbd360f783e154827U,
  0xbd1b6e03be525766U, 0xbe20109ebe1dadbeU, 0x3b27651abce9df13U, 0x3e1ad349bd221e53U,
  0xbd7639303e515850U, 0xbd01e147bd9794dfU, 0x3cb1936c3e3fab42U, 0xbe56ef743e5e2311U,
  0x3c897444bd316ad2U, 0x3e17ed4d3db0337aU, 0xbe1439693d8c908aU, 0xbdbd34bebd21b321U,
  0x3d54bddd3e2af1d6U, 0xbc3bfcf6be11b7feU, 0x3d433536bd58fe5dU, 0x3c9156c33e6144f4U,
  0xbbe055f5bda721e2U, 0xbd0f47dabe7c99abU, 0xbd9572efbd93aeabU, 0xbdde0132be01c9d4U,
  0x3daa18043daf1d2eU, 0xbdd7a055bd96618bU, 0x3d8a07f93df7524fU, 0xbd25dde2bd4600b4U,
  0xbe2148dabe4aac8eU, 0xbdd144c93de47fc0U, 0xbe09571a3e49e77dU, 0x3d0e309ebe4e808fU,
  0xbe49397ebdbb8b11U, 0x3db991583cfd19cfU, 0xbe1b2646be1811f0U, 0xbe6472723dc615a0U,
  0xbd101ad53e743693U, 0xbd69b5e0be982975U, 0xbcb5a73dbd22d4a4U, 0xbe35cee03e1371beU,
  0x3d9a112ebe819ee6U, 0x3e41ef2a3e358143U, 0xbcdf47043db0801dU, 0xbe57d771bde4e2feU,
  0x3dffd2e33d8f3247U, 0x3e518f20bc03e688U, 0xbe042d313dd749bcU, 0xbd82b261be112502U,
  0x3e26e36ebd20420eU, 0xbddd2d723ca357b7U, 0xbc9874983e09ca4aU, 0x3d601d62bde89f79U,
  0xbe96032cbe1e80c9U, 0x3e8038a3bd5985cdU, 0xbd1f32313d7ca952U, 0x3c4d9ea4be0c8edfU,
  0x3ddfdb10bdbec0e1U, 0x3e49401d3e4ea11bU, 0xbd95a7da3e31f4b3U, 0xbe221e28bd453e56U,
  0x3de0916ebc15c73cU, 0xbebe8fa53dcb8f9dU, 0xbd1ecac83e1ac268U, 0xbd6651a33e6b7ad6U,
  0xbeb5e6d5bd3ab9e5U, 0xbd85c3ff3d356787U, 0x3e5a013b3e4c4af2U, 0xbe34406a3e8e90e9U,
  0xbe487a3dbe09a1f2U, 0x3daec279be2817a8U, 0x3d47ab843e75cad0U, 0xbdc0597d3dd8a908U,
  0x3d44d452bdcf1822U, 0xbac356e63dc00bb4U, 0x3d14a572be17cad3U, 0x3d803682bdeba50fU,
  0x3cb419d93de5367dU, 0xbe264b273d04ac10U, 0x3d74fa8fbb9fe76fU, 0xbd09e07b3e0c1314U,
  0xbe6511e03d4c2cf0U, 0x3e76bd61be6adb03U, 0x3d37cb843e368ae9U, 0xbdfb94773e61fb8eU,
  0xbe6109e73ce66321U, 0xbe02e82cbd9f94a7U, 0x3d32cd363e1a4f27U, 0xbcb03f13be16aaa9U,
  0xbd3ecaf7bdc2e448U, 0xbd25c8b43e500856U, 0xbd6d272f3d9d2d4aU, 0xbdfde623bc96b66aU,
  0x3e0c58c63b91483fU, 0x3d00c857be19eb3bU, 0xbd9c87f23d80042dU, 0xbe2c058dbdc7a6a2U,
  0x3c30e5a3be947a4dU, 0x3df2f6a5be106195U, 0x3a9957f93e259d92U, 0xbdd05a3e3e59bc22U,
  0x3d1695c7be3f2c5dU, 0x3e3b95473c97b5c2U, 0x3d44bf313daeaa97U, 0xbe564781be1a9908U,
  0xbbcfe5d6bd8c6314U, 0xbdd0a4fdbdae7336U, 0xbe65a2013da1d6d4U, 0x3c62979cbe1c939aU,
  0x3df0a8723ca08822U, 0xbe75e948bca28c4dU, 0xbe45591b3dbc4116U, 0xbe5e43773e6dc1caU,
  0x3cc0a7853e254c51U, 0xbd8bd5ebbd813073U, 0xbd1de636be0cbd71U, 0x3e33299b3d3b3e07U,
  0x3d6ea86ebd790d79U, 0x3da77e1abdfc3d89U, 0x3e2e31173cae7054U, 0xbd9b8f3cbdb6d591U,
  0x3cfc70d2bd21c3b6U, 0x3dce5cf8bdeea1dcU, 0x3e070bebbe7c0939U, 0x3ded7138bd749935U,
  0x3e2e150dbe19c06eU, 0x3e72be3e3c3c12cbU, 0x3e4f44e4be25bd44U, 0xbe5961f8be36b417U,
  0xbe81138b3d2c2434U, 0xbd5a602abdd9d95aU, 0xbe5d8ee1be1d154cU, 0xbd640c013d9650dfU,
  0xbd8b85a6bca4d8c9U, 0xbe24f9f03d084eeaU, 0x3e05ed96bdc006a8U, 0xbe06803bbdd948c4U,
  0x3d3e23ad3e140155U, 0xbdb7b219bda485dfU, 0x3e3ca188bd92cd63U, 0xbe0dd0923d5c2be1U,
  0x3dfa57003e211ed0U, 0x3dae1e50be6a15f6U, 0xbe3892873d88ddf5U, 0xbd083e96bb3d6592U,
  0x3da180d3bdfefdcdU, 0xbc64e0ca3e011e79U, 0x3e83d4f33dbd4d7fU, 0x3d490966bc39f6ccU,
  0x3e32e99a3e39e17aU, 0x3e9f63c3bdfec851U, 0x3c24bff2b9890713U, 0xbde39ed53d913077U,
  0x3e1d2093bccf04a7U, 0x3dfd5581bd3dee27U, 0x3e2c11b3bdba4a97U, 0x3eef409c3cf89f6eU,
  0x3e01aaa2bd2fe333U, 0xbe064d903ce31f4fU, 0x3e94ea8e3da36ee1U, 0xbe2ccb663d3187d9U,
  0x3cdece08bd3aa092U, 0x3eb6bed33d4a6b97U, 0x3da56ca63ea22a71U, 0xbe3af2863e029429U,
  0x3d4043a23de926c4U, 0x3de627e63d5de87bU, 0xbddcb3ebb958c90dU, 0x3e4b344abe07c9eaU,
  0x3c9ba8e63e5ed5f7U, 0xbd09d4f93e0332afU, 0x3e90c628be391c95U, 0xbdad02993e9cddc4U,
  0x3dec8545bdc4b4b6U, 0x3e83b38abd6e3b66U, 0x3d16a6b93e0fb1bfU, 0xbcbe7a1bbe16a43aU,
  0x3e5171abbdf4030bU, 0xbd933a81bdecdb95U, 0x3d9a32a6be757f2cU, 0x3e6a28c2bd081b2dU,
  0x3d9457a4be07d641U, 0x3d8244b9be2c23dcU, 0x3db15010be4d86b9U, 0xbc972a2ebe154394U,
  0xbde1d1d9bcfd9a71U, 0x3dea5c21bce5729cU, 0xbca5577abd888762U, 0x3c804d66be74859dU,
  0xbd5310c5be208858U, 0xbda0eefabd4ac33bU, 0xbe730198be8336cdU, 0x3ca10e333ce4ac32U,
  0x3db13f3a3d5f3ad2U, 0x3d353ddbbe90b41aU, 0x3e3f5d1bbd5eb8f3U, 0x3bd0d40a3d2ae09cU,
  0xbd98cde4bbda9f1dU, 0x3dd2a8003c7c53a5U, 0x3db6181fbd52ef26U, 0x3d601220be060cefU,
  0x3e261c163b9c246cU, 0x3de178733daa1e84U, 0xbe1a6487bc88107aU, 0x3d0855583e21d385U,
  0x3d9ffc793e9944a1U, 0x3d49bc023e132bf8U, 0xbe1eb9e13dd53239U, 0xbd3980613e0c2d37U,
  0xbd9653523da075a6U, 0xbde3beb33e379023U, 0x3e4f14f3bdb5a2d7U, 0x3d16db223d8be57fU,
  0x3d890a393c077ae5U, 0x3d8b59e1be047b47U, 0xbdc790cdbdf40696U, 0xbcdebea7bb897afdU,
  0x3e9288e3bd81f7a5U, 0x3e031af13e94b782U, 0xbe95c93abe2f637cU, 0xbe2851ee3e31da76U,
  0x3e53c830bd997b3eU, 0xbe0eefc6bd4eca53U, 0x3db9b48bbce6cea4U, 0xbddb56c03e4347fcU,
  0xbd4a0843bd920a25U, 0xbe0545bbbe0f52a7U, 0x3d30ab9dbd0e21c6U, 0xbe7a4429bdb84786U,
  0xbe30cef43d82f776U, 0x3cddff773ceef7deU, 0xbd9beedf3e4eef85U, 0x3b51e1d7bc6d3569U,
  0xbe340799be46924eU, 0xbd7a93fbbd1c5cd4U, 0xbdad93433d9be727U, 0xbe62ea31bdb38774U,
  0xbe36ac80badab768U, 0xbd5480a0be9d3611U, 0xbd01d448be3efa9aU, 0xbddddc2fbe2db2d9U,
  0xbe327551bd7b1beaU, 0xbe5b6ae1be00fb95U, 0xbe6215f9bd59094bU, 0xbe2ba01cbddc478cU,
  0xbcd9d1d1be756806U, 0xbd8ca91bbd8aa6a7U, 0xbe3d2c79be0a26baU, 0xbd64932cbdfd0e19U,
  0x4002f2414029ad4dU, 0x3fd9a6013fecf43dU, 0x3f8b25123fd989b0U, 0x3fb18d663fc79d00U,
  0x3fc97cc63fc0f593U, 0x3ffb01803fc16deeU, 0x3f96b5c0401ce2d7U, 0x3fa2b534400d60a5U,
  0x40458d8b3fb7cfdaU, 0x4034c5ad3fced767U, 0x3fea3cce3fb04c42U, 0x404d90664009e6abU,
  0x4009cc164000dcc3U, 0x3f98e9c43fc81bbfU, 0x3fe614933fb521abU, 0x400048d0400c0036U,
  0xbf5f2b52bf532bb9U, 0xbe95246ebf22b80cU, 0xbe1d65d8bf02cc8dU, 0xbe7e275dbf1a7935U,
  0xbe370cec3dba64a0U, 0xbefdea043b859900U, 0xbe368010beb7d7c2U, 0xbeca902dbf1980abU,
  0xbe8ea2e8bea49ed4U, 0x3d3932003d4b8990U, 0xbf34d82dbeb302c9U, 0x3dca32e0be12bcf6U,
  0xbe99dfa23b918000U, 0xbe984956bedcc743U, 0xbee65c1e3d899c40U, 0xbe924b79be3dd3ceU,
  0xbc74ac4e3d09a0ecU, 0xbda09113bb74ac4eU, 0xbdce71623e33ae89U, 0x3d5616c43cf4ac4eU,
  0x3da09113be05ce3bU, 0xbc74ac4e3bf4ac4eU, 0xbe932fa7bd18ebb1U, 0xbc98ebb100000000U,
  0xbe18ebb13c98ebb1U, 0xbe46cbff3c37813aU, 0xbe18ebb1be4a9eb1U, 0xbb74ac4e3cd616c4U,
  0xbd09a0ecbd283676U, 0x3cd616c43e33ae89U, 0xbda09113bec6cbffU, 0x3dbf269d3d91464eU,
  0xbda091133bf4ac4eU, 0x3d74ac4e3d656189U, 0x3b74ac4e3db7813aU, 0x3d46cbff3c98ebb1U,
  0xbcd616c4be3f269dU, 0xbdbf269d3cf4ac4eU, 0xbdbf269dbcd616c4U, 0x3d74ac4ebd98ebb1U,
  0xbe42f94e3d656189U, 0xbe4e71623e0d739dU, 0xbe42f94ebd18ebb1U, 0xbdafdbd83bf4ac4eU,
  0xbe09a0ecbd81fb89U, 0x3c37813a3e05ce3bU, 0xbded06ecbe970258U, 0xbcb7813abd37813aU,
  0xbd91464ebdfc51b0U, 0x3d283676bdb7813aU, 0xbded06ec3bf4ac4eU, 0xbc74ac4ebdc6cbffU,
  0x3d98ebb1bcf4ac4eU, 0x3d5616c43d98ebb1U, 0xbd74ac4e3d89a0ecU, 0x3cb7813a3d98ebb1U,
  0xbded06ecbbf4ac4eU, 0xbe2836763cf4ac4eU, 0xbde56189bbf4ac4eU, 0xbcd616c4bdc6cbffU,
  0x3bf4ac4e3d5616c4U, 0x3db7813a3e618ed8U, 0xbe3b53ecbeac0927U, 0xbd98ebb1bcb7813aU,
  0x3d09a0ec3b74ac4eU, 0xbded06ecbe18ebb1U, 0xbd74ac4e3e2fdbd8U, 0xbd5616c43cb7813aU,
  0x3e151900be81fb89U, 0xbdce7162bd09a0ecU, 0xbdddbc2700000000U, 0xbc98ebb13da83676U,
  0xbe8012313cb7813aU, 0xbe618ed8bcb7813aU, 0xbe618ed8be37813aU, 0xbd656189bd81fb89U,
  0xbdafdbd8bdddbc27U, 0x3d98ebb13e2463c4U, 0xbe0d739dbef2c2f5U, 0xbd37813abdbf269dU,
  0x3c37813abe18ebb1U, 0xbdbf269dU, 0xbbf4ac4e3e2fdbd8U, 0x3d91464ebb74ac4eU,
  0x3d89a0ecbe4e7162U, 0x3cb7813a3d74ac4eU, 0xbde56189bd74ac4eU, 0xbd81fb89bb74ac4eU,
  0xbe81fb893d09a0ecU, 0xbe42f94ebbf4ac4eU, 0xbe5616c4bd46cbffU, 0xbe1519003c37813aU,
  0xbdce71623d81fb89U, 0x3dce71623d81fb89U, 0xbe5616c4bed9e975U, 0xbd656189be05ce3bU,
  0xbd0b554a3d4c5af5U, 0x3e06b050bc820b56U, 0xbde393d7bd1de932U, 0xbd1de9323d273326U,
  0x3e0da7c73d6838d1U, 0xbd020b56be6f3048U, 0xbd55a4e9bd7182c5U, 0xbcdeeeddbe937600U,
  0x3d020b563d4c5af5U, 0xbe16f1bbbc39c70eU, 0xbd1de932be3e6c07U, 0x3d149f3ebca73326U,
  0xbe4a0878bca73326U, 0xbb949f3e3ca73326U, 0xbd5eeeddbe194438U, 0x3c949f3e3d431101U,
  0xbe40be843d8ffa44U, 0x3dcc5af53d6838d1U, 0xbd4c5af53d7182c5U, 0xbd273326bcf182c5U,
  0x3e124cc1bb149f3eU, 0xbd7accb9bc149f3eU, 0xbda28e2cbda28e2cU, 0x3e06b050be6a8b4eU,
  0xbd1de9323d949f3eU, 0xbe045dd3bdd5a4e9U, 0xbb149f3ebd9de932U, 0xbd86b0503d149f3eU,
  0xbe787a3c3d820b56U, 0x3d273326bd5eeeddU, 0xbd8b554abda28e2cU, 0xbdb522143ca73326U,
  0xbe40be843d7accb9U, 0x3db52214bc39c70eU, 0xbd4c5af53dda49e3U, 0xbdb52214be1de932U,
  0x3e45637e3d431101U, 0x3d307d1abe3e6c07U, 0xbdabd8203e045dd3U, 0x3dda49e3be6f3048U,
  0x3d7accb93d307d1aU, 0xbcdeeeddbdc31101U, 0xbd949f3ebc5eeeddU, 0x3d820b563cdeeeddU,
  0xbe2bd820bd307d1aU, 0xbd7accb93d39c70eU, 0x3d4311013c5eeeddU, 0xbe2e2a9d3e0902cdU,
  0xbe6393d7bb149f3eU, 0x3dcc5af5bd86b050U, 0x3d820b563db9c70eU, 0x3d820b56be045dd3U,
  0x3c820b563ddeeeddU, 0x3da28e2cbe2bd820U, 0x3d149f3e3db07d1aU, 0x3decddcbbe7accb9U,
  0x3d9de9323e273326U, 0xbd55a4e93d149f3eU, 0x3db9c70ebc39c70eU, 0x3dfaccb9bd273326U,
  0xbde393d73d273326U, 0xbde393d73d949f3eU, 0x3d9de9323d820b56U, 0xbe65e6543e2985a3U,
  0xbe39c70ebdc31101U, 0x3c149f3e3d39c70eU, 0xbccc5af53d820b56U, 0xbb949f3ebca73326U,
  0x3d5eeeddbda73326U, 0x3d55a4e9be0b554aU, 0xbc5eeeddbd1de932U, 0x3d7182c5be61415aU,
  0xbc149f3e3e2bd820U, 0x3d149f3e3d020b56U, 0x3d0b554abddeeeddU, 0xbcdeeeddbd1de932U,
  0xbe06b050bbdeeeddU, 0xbdb9c70e3c949f3eU, 0x3b949f3e3d431101U, 0xbe45637e3d273326U,
  0xbcdf53c93e1ee7ecU, 0xbe4e25f4be3f1ddbU, 0xbdb46136bc70819dU, 0xbdb015c1be3cf820U,
  0xbdf4cd12be885bc6U, 0x3d2bca4cbe58e299U, 0xbe0748e83d70819dU, 0xbb896ea3bcf0819dU,
  0x3bce25f4be0b945eU, 0xbe323b7bbd1a9c77U, 0xbc2bca4cbe323b7bU, 0xbe7b3e423c096ea3U,
  0x3dd2716abddf53c9U, 0xbdb461363cabca4cU, 0x3c896ea3be414395U, 0xbe0fdfd3be3f1ddbU,
  0x3da333623d4e25f4U, 0xbcbcf820bc096ea3U, 0xbe096ea33dd2716aU, 0xbdc58f0abcbcf820U,
  0x3b096ea3bdf0819dU, 0x3d346136bda33362U, 0xbd67eab33d4e25f4U, 0xbddb0854be0dba18U,
  0x3d67eab3bdb015c1U, 0x3d00d7b9bdf4cd12U, 0x3dc9da7f3db8acabU, 0xbe76f2cd3d92058dU,
  0xbdf0819dbe56bcdfU, 0x3bce25f43e096ea3U, 0xbde7eab3bd4e25f4U, 0xbd458f0abcce25f4U,
  0x3e7f89b7bc70819dU, 0x3e70819d3d5f53c9U, 0x3dc9da7f3db8acabU, 0x3d2bca4c3db8acabU,
  0xbb096ea3bd67eab3U, 0xbd56bcdfbd80d7b9U, 0xbd791887bdd2716aU, 0x3dc58f0abddf53c9U,
  0x3d9651023da77ed7U, 0x3d85232ebcce25f4U, 0xbdec3628bdfd63fdU, 0xbd12058d3cbcf820U,
  0xbd56bcdf00000000U, 0x3dbcf820be233362U, 0x3cdf53c93b896ea3U, 0x3d8dba183df0819dU,
  0x3cf0819dbc2bca4cU, 0x3e12058d3da77ed7U, 0x3d67eab3bcdf53c9U, 0xbb896ea33dce25f4U,
  0x3d00d7b93db015c1U, 0x3d12058dbd5f53c9U, 0xbd4e25f4bd56bcdfU, 0xbd85232e3e29a491U,
  0xbe25591c3e49da7fU, 0x3cabca4c3d56bcdfU, 0xbd5f53c9bdf91887U, 0x3e233362bd233362U,
  0x3c9a9c773e1ee7ecU, 0xbcf0819dbda77ed7U, 0x3c9a9c77bcf0819dU, 0xbbce25f4bddf53c9U,
  0xbe3ad266be76f2cdU, 0x3d56bcdf3d791887U, 0x3d67eab3be639f3eU, 0x3d00d7b9bd458f0aU,
  0x3c896ea33d346136U, 0x3da77ed7bd5f53c9U, 0x3cdf53c9bd80d7b9U, 0x3de7eab33e0b945eU,
  0x3b096ea33e639f3eU, 0x3e1a9c773d3cf820U, 0xbb896ea3bd096ea3U, 0x3dc14395bde7eab3U,
  0x3e1ee7ecbcdf53c9U, 0x3e00d7b93c2bca4cU, 0xbc096ea3bd80d7b9U, 0xbd8dba183d9a9c77U,
  0x3e146ad13e499f9aU, 0x3cc99f9a3dd4d323U, 0x3cc99f9abc6006abU, 0x3d54d3233e0c042bU,
  0x3cb338893d1cd178U, 0x3e3e6c12be093749U, 0x3d6b3a34bdb33889U, 0x3d3338893c066a67U,
  0x3d3338893cb33889U, 0xbdcf395ebd80d0a2U, 0x3ce006ab3d280500U, 0xbb333889be2ad1e3U,
  0x3dc99f9abda26b3cU, 0xbcc99f9a3e0ed10dU, 0x3d9737b43d066a67U, 0x3e0c042b3dc405d6U,
  0x3e3338893ce006abU, 0xbde5a0703e2ad1e3U, 0x3cf66dbcbcc99f9aU, 0xbda805003e00d0a2U,
  0x3c333889bd766dbcU, 0x3dc405d6bc333889U, 0xbe38d24dbe039d85U, 0x3b333889bd866a67U,
  0x3c066a67bce006abU, 0x3deb3a343ce006abU, 0x3e4405d6bc9cd178U, 0xbd1cd178bd766dbcU,
  0xbdbe6c12bde006abU, 0xbbb338893d280500U, 0xbe280500bc6006abU, 0x3e146ad13dda6ce7U,
  0x3da80500bd1cd178U, 0xbe039d853e280500U, 0x3dc405d63d280500U, 0x3dda6ce7U,
  0xbdcf395ebe25381eU, 0x3e00d0a2bd9cd178U, 0x3cf66dbcbd333889U, 0xbe36056bbe0c042bU,
  0xbde5a070bd8c042bU, 0xbd3e6c12bdd4d323U, 0x3dcf395ebe1737b4U, 0xbe1cd178be36056bU,
  0xbe54d323bdb33889U, 0xbe1737b43d54d323U, 0x3cf66dbc3e00d0a2U, 0x3d119defbde006abU,
  0x3db33889bd6b3a34U, 0xbdb338893e0ed10dU, 0x3c866a673bb33889U, 0xbd119def3c066a67U,
  0xbdfc0781bdda6ce7U, 0xbdf0d3f83c066a67U, 0xbe066a67bdb8d24dU, 0xbd8c042bbe6e0716U,
  0xbd9cd178bc333889U, 0x3c866a67be36056bU, 0xbd3e6c12be4405d6U, 0xbdd4d323bbb33889U,
  0xbe333889bdad9ec5U, 0xbd2805003da26b3cU, 0xbd2805003c6006abU, 0xbd80d0a23dc405d6U,
  0xbc066a67bd8c042bU, 0xbdf0d3f8bd119defU, 0xbe3338893d54d323U, 0x3c6006abbd8c042bU,
  0xbe4c6c7cbc866a67U, 0xbdc405d6bda80500U, 0xbda26b3c3db33889U, 0xbe2ad1e3beb1d218U,
  0xbe520641bd499f9aU, 0xbd119defbbb33889U, 0x3d066a67be0ed10dU, 0xbdeb3a34be093749U,
  0xbe2ad1e33d066a67U, 0xbda26b3cbd1cd178U, 0x3da805003dcf395eU, 0xbd6b3a343d8c042bU,
  0x3da54fd03d8b7b58U, 0x3e27e50f3d10a5d6U, 0xbd39f9cabd81265aU, 0xbc254fd03e27e50fU,
  0xbea405303ccea3c4U, 0xbd95d0543dafa4cdU, 0x3e0b7b583dc44ec7U, 0x3d444ec7bcb9f9caU,
  0x3dc979463ba54fd0U, 0xbccea3c4bcb9f9caU, 0x3d90a5d63de34dbeU, 0xbe513903be46e406U,
  0xbd254fd03e133b15U, 0xbb254fd0bb254fd0U, 0x3d0650d9bc254fd0U, 0xbe7a8cf7bdd8f8c1U,
  0x3e01265a3c90a5d6U, 0x3dfd2236bd39f9caU, 0xbe22ba913d444ec7U, 0xbdb9f9ca3dbf2448U,
  0xbe41b988bdc44ec7U, 0x3bf7f7b8bdcea3c4U, 0x3d77f7b83ce34dbeU, 0xbd8650d93c4ea3c4U,
  0x3db9f9ca3d2fa4cdU, 0xbe1afad3be34cf4cU, 0x3e0b7b58U, 0xbe27e50fbe37648bU,
  0xbd6da2bb3d6da2bbU, 0x3ce34dbebde8783cU, 0x3de8783cbdbf2448U, 0xbe444ec7bdb9f9caU,
  0xbca54fd03d0650d9U, 0x3e0b7b583d8650d9U, 0xbd95d0543db9f9caU, 0xbde34dbe3e6b0d7cU,
  0xbe186594bca54fd0U, 0xbc90a5d6bdafa4cdU, 0x3da025523d444ec7U, 0xbdf7f7b83d81265aU,
  0x3d77f7b83d58f8c1U, 0xbc90a5d6bd10a5d6U, 0x3d0650d93d6da2bbU, 0xbea02552bd634dbeU,
  0xbdb4cf4cbc4ea3c4U, 0xbe0650d9be37648bU, 0x3d444ec7bdbf2448U, 0xbe7fb776be0b7b58U,
  0x3d8650d93c4ea3c4U, 0x3e03bb9abd1afad3U, 0x3b254fd03cf7f7b8U, 0x3cf7f7b83e60b87fU,
  0xbe254fd0bd8b7b58U, 0x3d634dbe3d9afad3U, 0x3d81265abdcea3c4U, 0xbdafa4cd3c254fd0U,
  0xbd4ea3c43d1afad3U, 0x3d58f8c1be133b15U, 0x3cb9f9ca3c90a5d6U, 0xbe81265abd9afad3U,
  0xbd10a5d6bd58f8c1U, 0xbd77f7b8be254fd0U, 0x3e03bb9a3d8b7b58U, 0xbe879b79bcb9f9caU,
  0xbc4ea3c43e444ec7U, 0xbc4ea3c43de34dbeU, 0xbcf7f7b83dc44ec7U, 0x3dcea3c43e202552U,
  0xbe7a8cf7bd1afad3U, 0x3dc44ec73ba54fd0U, 0x3d95d054bca54fd0U, 0x3ca54fd03d8b7b58U,
  0x3e01265abda02552U, 0x3d634dbebd4ea3c4U, 0x3c90a5d6bd10a5d6U, 0xbe2fa4cdbd10a5d6U,
  0xbd254fd03db4cf4cU, 0xbe1d9012bdb9f9caU, 0x3e37648b3d8650d9U, 0xbe566382bdafa4cdU,
  0xbe1024a8bdb2a806U, 0x3da679a83dae9892U, 0x3ddb4293bdffcdacU, 0xbd6b8065bd5323aaU,
  0xbe122c623d7bbe37U, 0xbd226a34be40de1eU, 0xbdd7331ebe0e1ceeU, 0x3db6b77abe0a0d79U,
  0xbdeb80653d226a34U, 0x3cc2e5d83ddf5208U, 0x3dfbbe37bd8e1ceeU, 0xbcd323aabd32a806U,
  0xbe4d0c7bbe6d881fU, 0xbe2471eebd1a4b4bU, 0x3dd7331e3cc2e5d8U, 0xbdcf14363dcb04c1U,
  0xbd5b42933b81ee90U, 0x3cc2e5d83c81ee90U, 0xbcf39f4ebe42e5d8U, 0xbcf39f4ebd5b4293U,
  0xbd7bbe373db6b77aU, 0xbcd323aabd3ac6efU, 0xbd122c62bd7bbe37U, 0x3e1c5305bca26a34U,
  0xbd7bbe37bdfbbe37U, 0x3ddb42933e122c62U, 0x3d922c623e0805bfU, 0x3d3ac6ef3d963bd6U,
  0xbe4f1436be77aec2U, 0xbdae9892bd4b04c1U, 0x3d81ee90bda26a34U, 0x3d963bd63c63617cU,
  0xbdbac6efbd739f4eU, 0xbdc2e5d8bd922c62U, 0x3df7aec2bdd323aaU, 0xbd226a34be05fe04U,
  0xbdbed6643daa891dU, 0x3dcb04c13d226a34U, 0x3da26a34be48fd07U, 0x3d739f4ebd5323aaU,
  0xbde770f03d226a34U, 0xbd6b80653db6b77aU, 0x3cf39f4e3e0a0d79U, 0x3d81ee903d85fe04U,
  0xbe2e9892be5323aaU, 0x3d3ac6ef3b81ee90U, 0x3e34afc0be03f64aU, 0x3de770f0bd32a806U,
  0x3d32a8063e01ee90U, 0x3d1a4b4b3dd323aaU, 0x3d32a806be36b77aU, 0x3da679a83d3ac6efU,
  0xbe163bd63d1a4b4bU, 0xbcb2a8063cc2e5d8U, 0x3c81ee90be1024a8U, 0x3dbed6643c81ee90U,
  0xbde3617c00000000U, 0xbd85fe04bd01ee90U, 0x3d2a891d3d1a4b4bU, 0x3e7fcdac3c42e5d8U,
  0xbe6770f0bd739f4eU, 0xbd32a8063e14341cU, 0x3c81ee90bd5323aaU, 0x3deb8065bcf39f4eU,
  0x3c226a343d8a0d79U, 0xbca26a34bd5323aaU, 0xbc01ee90be6978abU, 0xbd63617cbd739f4eU,
  0xbde770f0be2c90d7U, 0x3df7aec23e34afc0U, 0xbdeb8065bde3617cU, 0xbd32a8063dcb04c1U,
  0xbd42e5d8bda26a34U, 0xbd122c62bd85fe04U, 0xbb81ee903dc6f54cU, 0x3dbac6efbdb6b77aU,
  0xbe80eab3be30a04cU, 0xbd122c62bb81ee90U, 0x3def8fdabd3ac6efU, 0x3db6b77a3b81ee90U,
  0x3e80c7043e35687eU, 0xbd8f55b93e42d887U, 0xbe0adb0bbe237dc7U, 0x3c570096bdd285e8U,
  0x3d9cc5c23ddff5f1U, 0x3e0d1862bd8adb0bU, 0xbe66adf63daeb079U, 0x3e13d0673d7ad604U,
  0x3d984b153dfad604U, 0x3cb32b273ca14070U, 0xbdf1e0a83d7ad604U, 0x3ddff5f1bd8f55b9U,
  0x3df65b56bc332b27U, 0x3d4515de3d93d067U, 0xbe2140703cd70096U, 0x3d8f55b93e089db4U,
  0xbda14070bd86605dU, 0x3dc09b313e042307U, 0xbca14070be06605dU, 0xbce8eb4dbd68eb4dU,
  0xbcc515de3ca14070U, 0x3c570096bd68eb4dU, 0xbe01e5b0bda5bb1eU, 0x3e042307bdc515deU,
  0xbd7ad604bd8adb0bU, 0xbdf65b56bd06605dU, 0xbd5ff5f13dc09b31U, 0x3ca14070be0f55b9U,
  0x3c8f55b9bddff5f1U, 0xbd184b153d71e0a8U, 0xbe5db89abe214070U, 0xbe3c20833d984b15U,
  0xbd214070bda5bb1eU, 0x3daeb079bd71e0a8U, 0x3d71e0a8bdfad604U, 0x3d3c2083bd4515deU,
  0x3d214070bd3c2083U, 0x3b0f55b93d2a35ccU, 0x3cb32b27U, 0x3dce0b3abdc9908cU,
  0xbd71e0a83b8f55b9U, 0xbe2a35ccbb0f55b9U, 0xbe0d1862bde4709fU, 0xbdf1e0a8be3c2083U,
  0xbc0f55b9bdd285e8U, 0x3dd70096bd984b15U, 0xbddff5f1be409b31U, 0xbe889db4bd86605dU,
  0x3ddb7b43bdce0b3aU, 0xbe1193103dc515deU, 0x3c0f55b9be214070U, 0x3de8eb4dbce8eb4dU,
  0x3cc515de3d3c2083U, 0xbd5700963db7a5d5U, 0x3daeb0793d4e0b3aU, 0xbce8eb4d3cc515deU,
  0x3d8adb0bbd3c2083U, 0x3d5700963db32b27U, 0xbd71e0a8bdbc2083U, 0xbdc09b313d4515deU,
  0xbcfad604bb8f55b9U, 0x3c332b27bb8f55b9U, 0xbe2140703ce8eb4dU, 0x3cd70096bd81e5b0U,
  0xbd214070bb8f55b9U, 0xbd93d067bd06605dU, 0x3ddff5f1bdb7a5d5U, 0xbddb7b433ce8eb4dU,
  0x3d2a35cc3c7ad604U, 0xbe8e370ebda5bb1eU, 0x3d4e0b3a3d81e5b0U, 0xbe765b563d984b15U,
  0x3d4e0b3a3d5ff5f1U, 0x3daa35ccbe39e32cU, 0xbdc515debe35687eU, 0xbe332b273c0f55b9U,
  0x3e25bb1ebe160dbeU, 0xbe27f875bd214070U, 0xbd0f55b9bd4515deU, 0xbdd700963db32b27U,
  0xbbbc67463cbc6746U, 0x3e0a5bd73dd9d769U, 0xbd818700bc0d4d74U, 0x3d0d4d74bd8d4d74U,
  0xbe33926fbd0d4d74U, 0x3c8d4d74bd8d4d74U, 0xbca4da5d3cd3f42fU, 0x3bbc6746be82ffcfU,
  0xbdaabd97be0a5bd7U, 0xbebaee77be27cbfaU, 0xbdbc67463c0d4d74U, 0xbdc82dbabe1c0586U,
  0x3b3c67463dc82dbaU, 0xbdc24a803e510292U, 0x3d018700be800e32U, 0xbe56e5cc3e4b1f57U,
  0x3c0d4d74bd24da5dU, 0x3db6840c3cd3f42fU, 0x3cbc67463ca4da5dU, 0x3db0a0d2be482dbaU,
  0x3db6840cU, 0xbd1913e93dc82dbaU, 0xbd24da5d3da4da5dU, 0x3e0d4d74be53f42fU,
  0xbddfbaa33d8d4d74U, 0xbe8bd4a6bb3c6746U, 0xbc3c6746bdd9d769U, 0xbb3c6746bc8d4d74U,
  0x3cd3f42f3d818700U, 0xbc6b81183e36840cU, 0x3e076a3abd9ef723U, 0xbe0d4d74bd24da5dU,
  0x3dd9d7693ceb8118U, 0xbceb81183ca4da5dU, 0x3d24da5dbd3c6746U, 0x3e103f12bddfbaa3U,
  0x3db6840cbd3c6746U, 0x3b3c67463d24da5dU, 0xbcbc6746bc0d4d74U, 0x3d0d4d74be688f7aU,
  0xbdfd2ac63d30a0d2U, 0xbd9ef723bddfbaa3U, 0x3db6840cbd0d4d74U, 0xbcbc67463d24da5dU,
  0x3d53f42f3d9330afU, 0xbde59dddbb3c6746U, 0x3dc24a80be3975a9U, 0x3cbc67463c3c6746U,
  0xbd0187003dc82dbaU, 0xbd9913e9bdb0a0d2U, 0xbcbc6746bd9913e9U, 0x3d24da5dbe0a5bd7U,
  0xbceb81183c6b8118U, 0xbb3c6746bdaabd97U, 0xbe59d769bc3c6746U, 0xbd876a3abe4e10f5U,
  0x3d482dbabd9913e9U, 0xbe103f12be1913e9U, 0xbdd3f42fbceb8118U, 0xbe688f7abd018700U,
  0x3c0d4d74be0d4d74U, 0xbd0d4d74bd9913e9U, 0x3d818700be1913e9U, 0x3e0d4d74bd8d4d74U,
  0x3d876a3a3e1c0586U, 0x3e24da5dbdc82dbaU, 0x3e076a3abd24da5dU, 0xbd876a3abd30a0d2U,
  0x3d876a3abd30a0d2U, 0xbd30a0d2be103f12U, 0xbe7a3929bda4da5dU, 0xbd6b81183d6b8118U,
  0xbd482dba3daabd97U, 0xbc0d4d74bd9330afU, 0x3d3c6746be2abd97U, 0xbdb6840cbd0d4d74U,
  0x3c0d4d74be1913e9U, 0xbdf16452bd9330afU, 0xbd3c6746be56e5ccU, 0x3e076a3abe1c0586U,
  0xbded527f3d48cfa7U, 0x3da8dd29bd6d527fU, 0x3dbb1e96bd6431c9U, 0x3b120b623d6d527fU,
  0xbdd1f05d3e821223U, 0xbcb68e3a3e0b32d9U, 0xbe41f71ebd5b1113U, 0xbd9b2c183d969bbdU,
  0xbe5b11133ddb1113U, 0x3d9fbc73bd88eaacU, 0xbdf1e2dabdb68e3aU, 0x3e2fb5b2be7f93ecU,
  0xbe06a27e3b120b62U, 0x3d8d7b073d6431c9U, 0x3e021223bc920b62U, 0xbd920b62bd6431c9U,
  0xbd6d527f3e2204a1U, 0x3d3faef1bd5b1113U, 0x3b120b623d244cceU, 0x3d7f93ecbd9fbc73U,
  0xbcc8cfa73dbb1e96U, 0x3bdb11133dbb1e96U, 0x3d244ccebda44cceU, 0xbd08eaac3dfb0390U,
  0xbe1fbc733db68e3aU, 0x3c120b623d368e3aU, 0xbcdb11133d244cceU, 0x3e54388abe169bbdU,
  0xbe80ee0dbd08eaacU, 0xbbdb11133dd1f05dU, 0x3d2d6d84bd368e3aU, 0xbe0d7b073cff93ecU,
  0xbdfb03903d6431c9U, 0xbb920b62bd51f05dU, 0xbc368e3a3d1b2c18U, 0xbdbfaef13c7f93ecU,
  0xbdb1fddf00000000U, 0x3e169bbd3d244cceU, 0xbd2d6d84bd51f05dU, 0xbdb68e3abd08eaacU,
  0xbe58c8e5bc920b62U, 0xbd8d7b073d368e3aU, 0xbdcd60023c7f93ecU, 0x3db68e3abe7b0390U,
  0xbe90e74bbda8dd29U, 0x3e1d7446bcb68e3aU, 0x3d5b1113be1b2c18U, 0xbe1b2c18be0fc334U,
  0x3c920b62bd6431c9U, 0x3d8d7b07U, 0xbe045a513d368e3aU, 0xbd08eaac3e34460dU,
  0xbe06a27e3db68e3aU, 0x3d8d7b073e0b32d9U, 0xbc920b62bc7f93ecU, 0xbd9fbc73bc920b62U,
  0xbe0fc334be045a51U, 0xbe08eaac3d767335U, 0x3c5b1113bc7f93ecU, 0x3d920b62be48cfa7U,
  0xbe06a27ebda44cceU, 0x3e5680b83dbb1e96U, 0x3d9b2c18bdb1fddfU, 0xbe28dd29bd51f05dU,
  0x3d120b623d2d6d84U, 0x3ddb11133e4fa82fU, 0xbe145390bc7f93ecU, 0x3d9b2c183da8dd29U,
  0xbe61e99c3c368e3aU, 0x3e0fc3343e1b2c18U, 0xbdfb03903d368e3aU, 0x3de431c93d845a51U,
  0xbe0b32d9bd244cceU, 0xbb120b62bd48cfa7U, 0x3d368e3a3dbfaef1U, 0xbced527fbd9fbc73U,
  0xbe8fc3343cc8cfa7U, 0x3c7f93ec3e08eaacU, 0x3dd1f05dbda44cceU, 0xbe61e99cbd7f93ecU,
  0x3e137caa3e014dbcU, 0xbd5a332dbca1a12bU, 0x3db9dfbe3d5a332dU, 0xbd41f49a3d9d96bdU,
  0x3de65277bd9581e1U, 0x3e0962983d4a0976U, 0xbe3fef633dce13e4U, 0x3d8962983d521e52U,
  0xbb814dbc3b014dbcU, 0xbe075d61bc41f49aU, 0x3e25ab99bd4a0976U, 0x3c814dbc3dd628bfU,
  0x3c014dbc3dca0976U, 0x3e2bbb3e3e48043fU, 0xbcb1cae2be1f9bf4U, 0x3e23a662bda9b607U,
  0x3d21a12b3e7271c0U, 0xbdd628bf3e39dfbeU, 0xbda9b607bdc1f49aU, 0x3bc1f49a3cd21e52U,
  0x3e1f9bf43da9b607U, 0x3dadc075bdfe910aU, 0xbe521e52bcc1f49aU, 0x3b014dbc3d41f49aU,
  0xbe3be4f53dca0976U, 0xbda5ab99bdda332dU, 0x3d917774bdd21e52U, 0x3c014dbcbd39dfbeU,
  0xbdd21e52bd29b607U, 0xbca1a12b3e198c4fU, 0xbd29b607be804b21U, 0x3d917774bd5a332dU,
  0x3d9581e13dd628bfU, 0xbc41f49a3d8d6d06U, 0xbd8d6d06bbc1f49aU, 0x3c917774bc814dbcU,
  0xbd117774bdf67c2eU, 0x3dd628bf3d41f49aU, 0xbe137caa3e117774U, 0xbde24809bd9581e1U,
  0x3c814dbcbd6a5ce5U, 0x3d8d6d06be33d019U, 0x3ca1a12bbde65277U, 0xbd521e523d4a0976U,
  0xbe2bbb3ebd4a0976U, 0xbd85582abd41f49aU, 0x3d39dfbebd21a12bU, 0xbcd21e523df67c2eU,
  0xbd4a0976bd39dfbeU, 0xbe096298bd814dbcU, 0xbca1a12bbce24809U, 0x3d014dbcbd624809U,
  0x3d014dbcbd814dbcU, 0xbd9581e1bd896298U, 0xbcd21e523dde3d9bU, 0xbe31cae2be1f9bf4U,
  0xbd521e523ce24809U, 0x3d41f49abdd628bfU, 0x3d814dbcbda5ab99U, 0xbe137caabcf271c0U,
  0xbdde3d9b3d4a0976U, 0xbd8962983db5d550U, 0x3dca09763bc1f49aU, 0xbdee67533dca0976U,
  0x3cb1cae2bd9581e1U, 0xbdb1cae2bd7a869cU, 0xbe665277be096298U, 0x3dc5ff08bd8d6d06U,
  0x3bc1f49abda9b607U, 0xbcc1f49abdde3d9bU, 0xbb014dbc3dce13e4U, 0xbe542388be50191bU,
  0xbdb1cae23c014dbcU, 0x3c41f49a3ca1a12bU, 0x3d5a332dbe1d96bdU, 0xbe1787183dc5ff08U,
  0x3d624809bda9b607U, 0xbe7271c03c814dbcU, 0x3b014dbc3d9581e1U, 0xbc814dbc3d6a5ce5U,
  0x3e4465cb3bb54a45U, 0xbc17133abc538150U, 0x3d6a2a993d0069f1U, 0x3d8069f13d5b0f13U,
  0x3d5b0f13bd934c58U, 0x3da62ebfbc354a45U, 0xbe3cd8083d8bbe95U, 0xbd4465cbbd0069f1U,
  0xbe6fd4ebbd0069f1U, 0x3db183643c71b85cU, 0xbcc465cbbdc465cbU, 0xbe07f7b4be0069f1U,
  0xbe0f85773df57f3dU, 0x3d0069f13e244b4fU, 0x3dfd0d00bc97133aU, 0xbdb54a45bda267deU,
  0xbbf1b85c3cf1b85cU, 0xbe0bbe953dc465cbU, 0xbe07f7b43e1cbd8cU, 0xbc354a453dfd0d00U,
  0x3d79461f3d6a2a99U, 0x3d8f8577bcd38150U, 0xbd6a2a993d0f8577U, 0xbd8f85773c97133aU,
  0xbce29cd6bdd38150U, 0x3e29f5a1bca62ebfU, 0x3d9ada1bbe2f9ff3U, 0x3d4465cb3d2dbc82U,
  0xbe46493b3e0f8577U, 0xbda267de3de29cd6U, 0x3ca62ebfbd4465cbU, 0xbd8bbe953d4bf38eU,
  0x3d87f7b4bc538150U, 0xbcc465cb3dedf17bU, 0xbe46493b3e0bbe95U, 0x3df9461f3e024d62U,
  0xbd934c58bd8bbe95U, 0xbda62ebfbc71b85cU, 0x3d262ebf3b71b85cU, 0xbd6a2a99bd8f8577U,
  0xbd0f8577bd354a45U, 0x3e2267de3e061443U, 0x3cd38150be46493bU, 0xbda62ebfbd79461fU,
  0xbd71b85c3dedf17bU, 0xbda9f5a1bc97133aU, 0x3e024d623d5b0f13U, 0xbc71b85cbca62ebfU,
  0xbd0f8577bdc09ee9U, 0xbe134c58bcc465cbU, 0xbe6df17b3cb54a45U, 0x3e0f85773d1ea0fcU,
  0x3d262ebfbde663b8U, 0xbe5381503d1ea0fcU, 0xbd8430d2bdcfba6fU, 0xbdb91126be3af497U,
  0xbb71b85cbc87f7b4U, 0x3e1ea0fc3dc465cbU, 0x3c538150be07f7b4U, 0x3d6a2a99bd8bbe95U,
  0xbda62ebf3e2267deU, 0xbdc82cacbc17133aU, 0x3e3af4973e0430d2U, 0x3c17133abcf1b85cU,
  0xbdb18364be1168e7U, 0xbcb54a453bb54a45U, 0xbe519de0bcd38150U, 0x3d71b85c3ddb0f13U,
  0xbde663b83da9f5a1U, 0xbe3cd8083d17133aU, 0xbd0069f1bddb0f13U, 0xbd1ea0fcbe629cd6U,
  0xbd8430d23e07f7b4U, 0x3ca62ebfbd262ebfU, 0xbda267debd934c58U, 0xbdcfba6fbc538150U,
  0xbe09db243e1ea0fcU, 0xbca62ebfbd629cd6U, 0x3da9f5a13dea2a99U, 0x3d9ada1b3c17133aU,
  0x3de32e2a3dab74f4U, 0x3cab74f43d5ee4d7U, 0x3c092a5dbc892a5dU, 0x3d67777dbe182affU,
  0xbdb4079abcf00a23U, 0x3d8097b73e4b9ae2U, 0xbe3ebee93d452ce6U, 0xbdcdbf8c3debc0d0U,
  0xbdafbe473dc52ce6U, 0x3e160656bd960656U, 0x3d22e24e3dc52ce6U, 0x3ccdbf8cbdf89cc9U,
  0xbdab74f4bd789cc9U, 0xbdcdbf8cbd4dbf8cU, 0x3e0b4f06bdb4079aU, 0xbe3c9a40bda2e24eU,
  0x3e5876dbbd700a23U, 0x3d84e10a3d1a4fa9U, 0xbde32e2abc092a5dU, 0x3e34079abdcdbf8cU,
  0xbdd65231bc2b74f4U, 0xbd9606563df89cc9U, 0x3d9a4fa93c700a23U, 0xbcab74f43d11bd03U,
  0x3cdee4d73da72ba1U, 0x3db4079abe0097b7U, 0x3e092a5d3ddee4d7U, 0xbc4dbf8cbe29504bU,
  0xbccdbf8c3c9a4fa9U, 0x3e182aff3cdee4d7U, 0x3dda9b843d8d73b0U, 0xbe5a9b84bd1a4fa9U,
  0x3e4b9ae2bd8097b7U, 0x3d9e98fc3cdee4d7U, 0xbdab74f43c2b74f4U, 0x3d8d73b03d452ce6U,
  0x3d1a4fa9be31e2f1U, 0x3dc52ce63c892a5dU, 0x3cab74f4bd4dbf8cU, 0xbdcdbf8c3d34079aU,
  0xbe0d73b0bd3c9a40U, 0x3d8d73b0bdf00a23U, 0x3e02bc613da2e24eU, 0xbe632e2abdc0e393U,
  0x3cdee4d73c9a4fa9U, 0x3d5ee4d7bcab74f4U, 0x3d2b74f4bcbc9a40U, 0xbe272ba1bd5ee4d7U,
  0x3e8705b4bcab74f4U, 0x3ccdbf8c3e5ee4d7U, 0xbc700a233dab74f4U, 0xbccdbf8c3d11bd03U,
  0xbd4dbf8cbdfce61bU, 0x3d9606563d960656U, 0xbc892a5dbb892a5dU, 0x3d0097b73d34079aU,
  0xbc2b74f4bd3c9a40U, 0xbd2b74f4bcf00a23U, 0x3e0f9859bddee4d7U, 0xbe699c26be02bc61U,
  0xbd8097b73d0097b7U, 0x3c092a5d3d8097b7U, 0x3c2b74f4bd9a4fa9U, 0x3d092a5dbe2506f8U,
  0x3e7453763dda9b84U, 0x3de7777d3d34079aU, 0x3d9606563de7777dU, 0xbb092a5dbcdee4d7U,
  0xbe2b74f4bde32e2aU, 0x3b892a5d3d34079aU, 0xbd5ee4d7bc092a5dU, 0xbe0705b43d84e10aU,
  0xbc892a5dbd789cc9U, 0xbd84e10abdc0e393U, 0x3e4fe4353c2b74f4U, 0xbe881808be182affU,
  0xbde32e2abd9e98fcU, 0x3cab74f43d9a4fa9U, 0x3d67777dbe43083cU, 0x3b092a5dbe31e2f1U,
  0x3d5dd803bda66202U, 0x3d9c4c8e3d0d2c5fU, 0x3d8821a53e2b6cbcU, 0x3d2b6cbcbdb58231U,
  0x3e059c483d67ed78U, 0xbdba8ceb3d7202ecU, 0xbd1741d4bea01499U, 0x3c215748bd49ad1aU,
  0xbe23dca53c215748U, 0xbd53c28e3d0316eaU, 0x3d0316eabc49ad1aU, 0x3e1c4c8e3c8d2c5fU,
  0x3d5dd803be14bc76U, 0x3e0fb1bc3e1ed1ebU, 0x3d53c28e3dbf97a6U, 0xbe0316eabe358231U,
  0xbd3f97a63ba15748U, 0xbd2157483cddd803U, 0xbca157483db58231U, 0x3da15748bcddd803U,
  0x3e32fcd43dba8cebU, 0xbdab6cbc00000000U, 0x3e0aa702be5b52a6U, 0xbdf202ecbcddd803U,
  0xbd2b6cbcbdbf97a6U, 0x3d9237193d358231U, 0x3d49ad1a3d9741d4U, 0x3e1741d4bd7202ecU,
  0xbcf202ecbda66202U, 0xbcddd8033dd8cd49U, 0xbe23dca53d0d2c5fU, 0x3cddd80300000000U,
  0xbc8d2c5fbe23dca5U, 0x3da15748bcf202ecU, 0x3cddd8033da66202U, 0x3dc9ad1abc8d2c5fU,
  0xbd0d2c5fbdd3c28eU, 0xbdc4a260bc49ad1aU, 0x3dba8cebbdc4a260U, 0xbe123719bca15748U,
  0xbdb077773da15748U, 0x3da15748U, 0xbca157483dc4a260U, 0xbd0d2c5fbe14bc76U,
  0xbbf202ecbda15748U, 0x3d0316ea3da66202U, 0x3bf202ecbdddd803U, 0x3c7202ecbda66202U,
  0x3d0d2c5fbe266202U, 0x3d5dd8033da66202U, 0xbd7202ec3db58231U, 0xbcc9ad1abd7c1860U,
  0x3dddd8033cc9ad1aU, 0x3d3f97a63cc9ad1aU, 0xbd8316eabe0821a5U, 0xbd7202ecbd358231U,
  0x3d2157483db58231U, 0xbe215748bcc9ad1aU, 0x3bf202ec3dbf97a6U, 0x3dab6cbcbe8aa702U,
  0xbe0316eabcf202ecU, 0x3e2157483d49ad1aU, 0xbe23dca5bca15748U, 0x3d8d2c5fbe28e75fU,
  0x3d3f97a6bd53c28eU, 0x3d2157483db07777U, 0xbd2b6cbc3e266202U, 0x3d7c1860bd67ed78U,
  0x3da662023dddd803U, 0xbc49ad1a3e23dca5U, 0xbd923719be4eb7d4U, 0x3d358231bdc4a260U,
  0xbdf202ec3b215748U, 0xbe2df21abe0d2c5fU, 0xbd53c28ebdab6cbcU, 0x3e0d2c5fbe9c4c8eU,
  0xbd3f97a6bdfc1860U, 0x3e3a8ceb3e58cd49U, 0x3cb58231be4727bdU, 0x3d8d2c5fbde2e2bdU,
  0x3c1232f13e30a839U, 0x3d9232f13e153eacU, 0x3d4f1d80bc42ee97U, 0xbd7fd9263ddb4c6aU,
  0x3bc2ee97be27850aU, 0x3da4794fbd060408U, 0xbc1232f1be4f1d80U, 0x3bc2ee97be0c1b7dU,
  0xbe4c11c6be5534f5U, 0xbdc9060c3d8c1b7dU, 0xbdc2ee973c9232f1U, 0xbdc2ee97bcf3aa3dU,
  0xbddb4c6a3e2d9c7eU, 0x3d860408bdcf1d80U, 0x3ddb4c6a3e7ccd6cU, 0xbd42ee973dcf1d80U,
  0x3c9232f13df9c1b1U, 0x3dbcd7223d8c1b7dU, 0xbd42ee97bc1232f1U, 0xbc9232f13d8c1b7dU,
  0xbd7fd926bd9232f1U, 0x3d984a663e184a66U, 0xbd2a90c4be73aa3dU, 0xbdffd9263d5b4c6aU,
  0xbd984a66bec168baU, 0xbbc2ee973db6bfaeU, 0x3d1232f1bb42ee97U, 0xbe0c1b7dbe1e61dbU,
  0xbe33b3f33d5b4c6aU, 0x3d2a90c4bdaa90c4U, 0x3caa90c43e5e5824U, 0xbdffd926bd677b53U,
  0x3db6bfae3e02f84dU, 0x3c9232f1bd73aa3dU, 0x3d8604083cf3aa3dU, 0xbd2a90c43dd534f5U,
  0xbe1e61db3b42ee97U, 0x3dd534f53d1e61dbU, 0xbdffd926be1232f1U, 0x3c1232f13d4f1d80U,
  0xbd1e61dbbeac16a1U, 0xbdd534f53c73aa3dU, 0x3d7fd9263d060408U, 0xbdd534f5bd860408U,
  0xbcaa90c43cdb4c6aU, 0xbd9232f1bb42ee97U, 0xbdc9060c3dbcd722U, 0xbd9232f1bdf9c1b1U,
  0x3d73aa3d3e0f2737U, 0x3d1e61dbbd860408U, 0xbdaa90c4bcaa90c4U, 0xbc73aa3dbde77b53U,
  0xbe8789e5bdcf1d80U, 0x3d73aa3d3d7fd926U, 0x3caa90c4be6163dfU, 0xbe060408bcdb4c6aU,
  0xbe216d95be9fe7b8U, 0xbd677b533df3aa3dU, 0x3d42ee973ddb4c6aU, 0xbd2a90c4be49060cU,
  0xbd42ee97bdd534f5U, 0xbbc2ee97bdcf1d80U, 0xbd73aa3d3e45fa51U, 0xbdf3aa3dbd36bfaeU,
  0x3d677b533d984a66U, 0x3d5b4c6abe33b3f3U, 0xbb42ee97be060408U, 0xbe0f2737bda4794fU,
  0xbde163dfbe060408U, 0x3da4794f3bc2ee97U, 0xbd7fd926be709e82U, 0xbd677b533caa90c4U,
  0xbded92c8be890fc2U, 0xbdb0a8393cc2ee97U, 0x3d7fd9263d5b4c6aU, 0x3d7fd926be36bfaeU,
  0xbe24794fbe4f1d80U, 0xbbc2ee97be1232f1U, 0xbd0604083dcf1d80U, 0xbc1232f1be2a90c4U,
  0x3da15bda3dd53960U, 0xbca15bdabbb868f9U, 0x3dec467f3d668337U, 0xbe15d54a3df7cd0fU,
  0x3dbe2c41bde0bfefU, 0x3e46d12cbe8038fdU, 0xbd5afca83df7cd0fU, 0x3cfd9056bdb2a5b1U,
  0xbdb2a5b1bd0a4ebbU, 0xbbb868f93c3868f9U, 0x3dcf76183d7d9056U, 0xbeb6f827bd215bdaU,
  0xbd7d9056bdc3ef89U, 0xbde0bfef3e048b73U, 0xbc0a4ebbbd8a4ebbU, 0xbdec467f3d901203U,
  0x3df209c73ccf7618U, 0x3dcf7618bd4f7618U, 0x3ccf76183dcf7618U, 0xbd848b733dd53960U,
  0xbda71f22bd9b9892U, 0xbe18b6eebd3868f9U, 0xbde68337bd43ef89U, 0x3d43ef893e01a9cfU,
  0x3ccf7618bd3868f9U, 0xbd43ef89bd2ce269U, 0xbe076d17be12f3a6U, 0xbdf7cd0f3d0a4ebbU,
  0x3e12f3a63d15d54aU, 0xbd4f7618bd668337U, 0x3e0d305fbe60bfefU, 0xbe1b9892bdace269U,
  0x3d4f7618bd5afca8U, 0xbdb2a5b1bda71f22U, 0x3db2a5b13bb868f9U, 0xbdb868f93da71f22U,
  0x3da15bda3d2ce269U, 0x3da15bda3e076d17U, 0x3c3868f9bd2ce269U, 0xbcfd90563e215bdaU,
  0xbe0a4ebb3dfd9056U, 0x3c3868f900000000U, 0x3db868f9bd3868f9U, 0x3da15bdabdcf7618U,
  0x3e4f7618bd2ce269U, 0xbd0a4ebb3d0a4ebbU, 0x3cfd9056bcb868f9U, 0xbd2ce269bdc9b2d0U,
  0xbde0bfef3e048b73U, 0xbb3868f93dfd9056U, 0x3d2ce269bd3868f9U, 0xbce683373d5afca8U,
  0x3df7cd0fbe3e2c41U, 0x3ddafca83df209c7U, 0xbd215bda3de68337U, 0x3d9b9892bd901203U,
  0xbe15d54a3df7cd0fU, 0x3d215bda3ddafca8U, 0x3ddafca83d5afca8U, 0xbdace269bdf7cd0fU,
  0xbdcf7618bd3868f9U, 0x3d3868f9be1e7a36U, 0x3bb868f9be243d7eU, 0x3d43ef89bd95d54aU,
  0xbd848b733db868f9U, 0x3cfd9056be0d305fU, 0x3e101203be32a5b1U, 0x3c0a4ebbbc8a4ebbU,
  0xbe7209c73ce68337U, 0xbe32a5b13d7209c7U, 0xbdcf76183d215bdaU, 0x3d5afca8bccf7618U,
  0xbda71f223d7209c7U, 0xbe10120300000000U, 0xbdc3ef893d95d54aU, 0xbda15bdabd848b73U,
  0x3bb868f9bdd53960U, 0x3c8a4ebbbe49b2d0U, 0xbca15bdabe9feb08U, 0x3cb868f9bd7209c7U,
  0xbd08824dbd3a260cU, 0xbd88824d3d7832bbU, 0x3d94eb3d3d2dbd1cU, 0xbda1542d3cadbd1cU,
  0xbdf832bbbe370bd0U, 0xbbc68efcbda1542dU, 0xbe4374c000000000U, 0xbd14eb3dbe627b17U,
  0xbda788a5be370bd0U, 0x3d52f7ec3d14eb3dU, 0x3e49a9383d88824dU, 0xbd5f60dcbdc68efcU,
  0xbe2788a53d52f7ecU, 0xbd468efcbdf1fe43U, 0xbc7832bbbd9b1fb5U, 0xbc94eb3d3e1b1fb5U,
  0xbb468efc3cc68efcU, 0xbcf832bb3df832bbU, 0x3df1fe43bda788a5U, 0xbdc68efc3d7832bbU,
  0xbcc68efc3cc68efcU, 0x3dba260c3cadbd1cU, 0xbe592c64bda1542dU, 0xbd9b1fb5be94eb3dU,
  0xbdebc9cbbe0b9c89U, 0xbdc05a843db3f194U, 0x3cdf60dcbddf60dcU, 0x3c14eb3d3d08824dU,
  0xbe52f7ecbdd92c64U, 0x3d88824d3cdf60dcU, 0x3d21542d3d9b1fb5U, 0x3d7832bb3df1fe43U,
  0x3e024dd5bc94eb3dU, 0xbde595533e1b1fb5U, 0x3d9b1fb53b468efcU, 0xbd824dd5bd5f60dcU,
  0xbdb3f1943d94eb3dU, 0x3d94eb3dbdc05a84U, 0xbe246e693c468efcU, 0x3cadbd1cbe7e6733U,
  0xbda788a5bd8eb6c5U, 0x3d08824dbbc68efcU, 0x3bc68efcbe1e39f1U, 0xbda1542dbd21542dU,
  0xbdadbd1cbc14eb3dU, 0xbdb3f194bd2dbd1cU, 0x3d08824dbdc68efcU, 0x3d2dbd1cbcadbd1cU,
  0x3dadbd1c3debc9cbU, 0x3dadbd1c3df832bbU, 0x3c468efcbd5f60dcU, 0xbbc68efc3d8eb6c5U,
  0xbe21542d3d2dbd1cU, 0x3dccc374bcc68efcU, 0xbe14eb3dbe0b9c89U, 0x3c468efcbec501deU,
  0xbd6bc9cbbe3a260cU, 0xbd52f7ecbd14eb3dU, 0x3debc9cbbe1b1fb5U, 0x3c14eb3dbd8eb6c5U,
  0xbc94eb3d3c94eb3dU, 0xbd52f7ec3d8eb6c5U, 0x3d14eb3d3e0b9c89U, 0x3dadbd1c3dfe6733U,
  0xbd14eb3d3e180579U, 0x3c94eb3dbd5f60dcU, 0x3dba260cbc468efcU, 0xbdf1fe43bd7832bbU,
  0xbd3a260cbe056811U, 0xbc7832bbbdadbd1cU, 0x3da788a5bdba260cU, 0xbcf832bbbe824dd5U,
  0xbe056811be5f60dcU, 0x3c7832bbbe180579U, 0xbdadbd1cbdb3f194U, 0x3d2dbd1cbdebc9cbU,
  0xbeb0d758bd2dbd1cU, 0x3bc68efcbd7832bbU, 0xbc94eb3d3d3a260cU, 0x3dc05a84bd5f60dcU,
  0xbc6275683dd653b0U, 0xbda9d80ebd8d8961U, 0x3c421b7ebe35f9c6U, 0x3e33f427bd5a5eedU,
  0x3d0167a93d0167a9U, 0xbdb1ee883dbe1040U, 0x3e1fbbf5bc8167a9U, 0x3da5ccd13d897e24U,
  0x3d524873bb8167a9U, 0x3d6a8be2bc627568U, 0x3c0167a9bd31ee88U, 0xbb8167a93da9d80eU,
  0xbd19ab19bc0167a9U, 0xbd72a25dbdd653b0U, 0x3d19ab193da5ccd1U, 0xbdda5eed3ce27568U,
  0xbd91949e3da9d80eU, 0x3d19ab19bd097e24U, 0xbd29d80ebd524873U, 0x3e44211cbd11949eU,
  0xbc91949ebc91949eU, 0x3d0167a93dfec415U, 0x3dade34b3e0572e6U, 0x3dca31f8bdea8be2U,
  0x3e0167a93dce3d35U, 0x3dfec415bcc21b7eU, 0x3d21c193bc0167a9U, 0x3da9d80e3e421b7eU,
  0x3dce3d35bc627568U, 0xbca1c193bdc626bbU, 0xbc8167a9bdce3d35U, 0xbd8d89613ce27568U,
  0x3e6275683e0572e6U, 0xbdc21b7e3d9db656U, 0xbdd248733d8167a9U, 0x3e19ab19bcf2a25dU,
  0xbd3a0503bdc626bbU, 0xbca1c1933d3a0503U, 0x3e8064da3df6ad9aU, 0x3dc21b7e3dc626bbU,
  0x3dbe10403d897e24U, 0xbd0167a9bc8167a9U, 0x3dfec415bd5a5eedU, 0xbdade34b3dca31f8U,
  0xbd9db656bd8167a9U, 0x3d0167a9bd8d8961U, 0x3d5a5eed3d72a25dU, 0xbc627568bc8167a9U,
  0x3e58594f3e0f8effU, 0x3dade34b3da1c193U, 0xbdea8be23c0167a9U, 0x3d99ab19bcf2a25dU,
  0x3d0167a9bdda5eedU, 0xbc21c1933d421b7eU, 0x3d5248733d524873U, 0xbd72a25d3db1ee88U,
  0xbc421b7e3b0167a9U, 0x3db1ee883d91949eU, 0x3e3a05033d99ab19U, 0xbe0167a93d31ee88U,
  0xbdade34bbc91949eU, 0x3d6a8be23d19ab19U, 0x3cd24873bda5ccd1U, 0xbd421b7e3da1c193U,
  0x3e58594f3e31ee88U, 0xbc91949e3dde6a2aU, 0xbe0572e63d11949eU, 0x3cb1ee883cf2a25dU,
  0xbd19ab19be2de34bU, 0xbd21c1933dea8be2U, 0x3e5248733e097e24U, 0x3d897e243d21c193U,
  0xbd99ab1900000000U, 0xbdf2a25dbd897e24U, 0x3e5c648cbd8167a9U, 0xbd6275683dda5eedU,
  0x3d99ab19bd72a25dU, 0x3d524873bce27568U, 0x3c21c193bd9db656U, 0xbc8167a9bc21c193U,
  0x3d06bcd83dce9907U, 0x3b8fb85e00000000U, 0xbdd316ca3cd7948dU, 0x3e23ee4bbdd7948dU,
  0x3d33a6763ca1af6aU, 0x3e0b3a9b3e1f7088U, 0x3b8fb85ebe023f15U, 0x3cb3a676bdce9907U,
  0xbd9436213c7b82a4U, 0x3dd316ca3e609013U, 0xbce98b99bcfb82a4U, 0x3e08fbbabd9d31a7U,
  0xbb8fb85e3c7b82a4U, 0x3d86bcd8be35e557U, 0x3e0b3a9b3e8e98edU, 0xbb8fb85e3d18b3e4U,
  0xbd98b3e4bdf704e2U, 0xbdaf28b33dc11fbeU, 0xbe7704e23dbca1fbU, 0x3e023f153b8fb85eU,
  0x3d459d813d698b99U, 0x3dd7948d3de98b99U, 0xbc33a676bdfb82a4U, 0x3c8fb85ebdb3a676U,
  0xbdd7948d3cb3a676U, 0x3e5316ca3d4e9907U, 0xbb8fb85e3d18b3e4U, 0x3dc11fbebe023f15U,
  0xbdbca1fb3dfb82a4U, 0xbd2aaaf0be167502U, 0x3e57948d3e87dc49U, 0x3bd7948d3dd7948dU,
  0xbcb3a676be2ce9d1U, 0xbd98b3e43df2871fU, 0xbd72871fbdb82438U, 0x3e2ce9d13e06bcd8U,
  0xbe3ee0ddbd2aaaf0U, 0xbcb3a6763bd7948dU, 0xbd459d81be08fbbaU, 0x3cd7948dbdd316caU,
  0x3d698b99bdf2871fU, 0x3db824383e000034U, 0xbdc11fbe3d823f15U, 0xbce98b993d98b3e4U,
  0x3da1af6a3c0fb85eU, 0xbe1f7088be86bcd8U, 0x3de090133e06bcd8U, 0x3d9d31a7bcd7948dU,
  0xbb0fb85ebb8fb85eU, 0xbd0fb85ebd8b3a9bU, 0xbd86bcd83d609013U, 0x3d98b3e43dca1b44U,
  0xbe21af6a3ddc1250U, 0xbdb82438bcc59d81U, 0xbd943621be21af6aU, 0xbe1d31a73c0fb85eU,
  0xbe0fb85ebe023f15U, 0x3d57948d3de50dd6U, 0xbc57948dbda62d2dU, 0x3d0fb85ebde09013U,
  0x3d7b82a4bce98b99U, 0xbde98b99be1af2c5U, 0x3e08fbbabcfb82a4U, 0xbe3167943dc11fbeU,
  0x3d7b82a4bd4e9907U, 0xbd823f15bddc1250U, 0xbdee095c3de98b99U, 0x3dbca1fb3d4e9907U,
  0xbe609013bc8fb85eU, 0xbe2f28b33e047df7U, 0xbd698b9900000000U, 0xbe823f15bdb3a676U,
  0xbe1af2c5bd9d31a7U, 0x3e3167943d33a676U, 0xbdaaaaf0bd3ca1fbU, 0xbe35e557bd7b82a4U,
  0xbd86bcd83d9d31a7U, 0xbe382438bd18b3e4U, 0x3dca1b443d33a676U, 0xbcc59d81bb0fb85eU,
  0xbe62aa8cbeb1153eU, 0xbd6dffe0be657fe1U, 0x3da9ffe93e1eaa95U, 0xbde2aa8cbd575538U,
  0xbce2aa8cbdfeffdeU, 0xbcb5553d3d135542U, 0xbd1355423cb5553dU, 0x3da9ffe9bdcbffe5U,
  0xbd1eaa95bd07ffeeU, 0xbe0daa98bdfeffdeU, 0xbe2cd53ebd9eaa95U, 0xbe4bffe53d98ffebU,
  0xbcb5553dbd8daa98U, 0x3c35553dbe4ed53aU, 0x3dd75538bde85536U, 0x3d4bffe5bc35553dU,
  0xbeb3ea93be87ffeeU, 0x3d07ffeebdfeffdeU, 0x3e217feabd575538U, 0xbc9eaa95be51aa8fU,
  0x3d575538bd87ffeeU, 0xbe025544be135542U, 0xbdd755383dc6553bU, 0x3e18ffebbde85536U,
  0xbc87ffee00000000U, 0xbd07ffeebce2aa8cU, 0xbda9ffe9bce2aa8cU, 0x3c35553dbdafaa93U,
  0x3ccbffe53c35553dU, 0x3df3aa8abdedffe0U, 0xbd35553dbd87ffeeU, 0x3b35553dbc9eaa95U,
  0xbe46553bbe7effdeU, 0x3d935542be657fe1U, 0x3de2aa8c3db5553dU, 0xbb35553dbe35553dU,
  0x3dc0aa913d6dffe0U, 0xbe162a97bd795534U, 0xbdbaffe7bd29ffe9U, 0x3dbaffe73b35553dU,
  0x3d9eaa953d6dffe0U, 0xbccbffe5be107fedU, 0xbdfeffdebc9eaa95U, 0x3dc6553bbde85536U,
  0xbdc6553bbe217feaU, 0x3dd1aa8fbd62aa8cU, 0x3d98ffebbd6dffe0U, 0xbccbffe53dc6553bU,
  0xbdd1aa8fbe07ffeeU, 0x3d35553dbd825544U, 0x3dc0aa913c87ffeeU, 0xbccbffe5bd29ffe9U,
  0x3d8255443bb5553dU, 0x3ccbffe5be07ffeeU, 0xbd4bffe53c62aa8cU, 0x3e29ffe93e025544U,
  0x3d8daa98bdafaa93U, 0xbccbffe5bd4bffe5U, 0x3d35553d3da9ffe9U, 0x3d87ffeebd6dffe0U,
  0x3dedffe0bdf3aa8aU, 0x3e1bd540bd1eaa95U, 0x3d135542bdd75538U, 0x3db5553d3e24553fU,
  0x3c87ffeebce2aa8cU, 0x3c9eaa95bdafaa93U, 0xbcb5553d3dd1aa8fU, 0x3d29ffe9bd6dffe0U,
  0xbb35553d3b35553dU, 0xbbb5553dbc87ffeeU, 0x3c07ffeebd87ffeeU, 0x3e4bffe53e29ffe9U,
  0xbdedffe0be1bd540U, 0xbda4553fbce2aa8cU, 0x3dedffe03ddcffe2U, 0x3d1eaa95bd40aa91U,
  0xbc87ffeebd575538U, 0x3d35553d3dc0aa91U, 0xbd29ffe9bd98ffebU, 0x3e8daa983dafaa93U,
  0x3deaf9103cfd0c39U, 0xbb909945bda2ac6eU, 0xbd46d2bf3e327d31U, 0x3db944603dcfdc53U,
  0xbd951e0fbe78876fU, 0xbcfd0c39bdeaf910U, 0xbc1099453dcfdc53U, 0xbe842c193def7ddaU,
  0x3c34bf96bcd8e5e8U, 0xbd878fb13cd8e5e8U, 0xbd34bf963ceaf910U, 0xbdabb6023ca2ac6eU,
  0x3e80c8813d109945U, 0xbd951e0fbc909945U, 0xbd109945bc109945U, 0x3b9099453d3dc92bU,
  0x3d46d2bf3dc24df5U, 0x3b9099453c58e5e8U, 0x3ceaf9103da73138U, 0x3d2bb6023e6af910U,
  0xbdabb602bd22ac6eU, 0xbd22ac6ebe030ae7U, 0x3e44905abe030ae7U, 0xbe078fb13e1e27a3U,
  0xbdb944603cc6d2bfU, 0xbde1ef7c3dbdc92bU, 0xbd4fdc533d99a2d9U, 0xbe151e0fbd909945U,
  0x3e34bf96bd909945U, 0x3d878fb1bd61ef7cU, 0x3ddd6ab2be12dbaaU, 0xbd22ac6ebde67446U,
  0x3d878fb13c109945U, 0xbe424df5bdabb602U, 0x3d8c147b3e054d4cU, 0x3d4fdc53bd909945U,
  0xbdc6d2bfbda2ac6eU, 0xbd830ae73d078fb1U, 0xbcc6d2bfbd7402a4U, 0xbd61ef7c3e29739dU,
  0x3d61ef7cbd99a2d9U, 0xbe1e27a33d7402a4U, 0x3d878fb1bdb03accU, 0xbdef7ddabe0c147bU,
  0x3def7ddabe327d31U, 0xbe1e27a33c909945U, 0x3cb4bf96bd830ae7U, 0xbb109945be54611dU,
  0x3dbdc92bbe34bf96U, 0xbe1e27a3bd7402a4U, 0xbcc6d2bfbd99a2d9U, 0x3c34bf96bdb4bf96U,
  0xbd99a2d9be22ac6eU, 0xbdf402a4bd19a2d9U, 0xbddd6ab2bd34bf96U, 0xbe206a093dcfdc53U,
  0x3d1099453d2bb602U, 0xbe19a2d9bd58e5e8U, 0xbcc6d2bfbd99a2d9U, 0xbe054d4cbd7402a4U,
  0x3dfd0c39bcd8e5e8U, 0xbdcfdc533b109945U, 0xbdcb5789bdb03accU, 0x3e24eed3be58e5e8U,
  0x3ddd6ab2bd8c147bU, 0xbe88b0e3be1e27a3U, 0x3df8876fbc909945U, 0x3db4bf96be12dbaaU,
  0x3b109945bdc24df5U, 0xbe8f7812bdbdc92bU, 0xbd7d0c39bd109945U, 0xbdfd0c393e176074U,
  0x3d7d0c393cc6d2bfU, 0xbe3b86c5bd58e5e8U, 0x3ceaf910be76450aU, 0xbe303accbd19a2d9U,
  0xbdabb6023cfd0c39U, 0xbe12dbaabd951e0fU, 0x3cfd0c393dc6d2bfU, 0x3d58e5e8be878fb1U,
  0x3d8df4c8bd3a5146U, 0xbd92646ebb0df4c8U, 0x3d4c0fe0be2f3a27U, 0xbd54ef2c3dbec0edU,
  0x3d80a5d53bd4ef2cU, 0xbe2892ae3d6f8d12U, 0x3da423073d5dce78U, 0xbde23e1f3e4e47b3U,
  0x3e0bbcf53da892aeU, 0xbd54ef2cbe76348bU, 0xbd2892ae3d786c5eU, 0xbdeb1d6bbb8df4c8U,
  0xbc8df4c8bdc33093U, 0x3e85157c3e098522U, 0x3dd95ed2be3c891aU, 0x3da42307bdeb1d6bU,
  0x3d85157cbe2aca81U, 0xbd92646e3d80a5d5U, 0x3d16d414bdb171faU, 0x3cf86c5ebd9b43bbU,
  0x3d9fb3613c8df4c8U, 0x3e074d4fbe098522U, 0xbdd07f863e5dce78U, 0x3cf86c5e3e623e1fU,
  0xbd05157c3e2d0254U, 0x3d6f8d12be433093U, 0x3de6adc53d92646eU, 0xbc786c5e3dc33093U,
  0x3da42307be68e598U, 0x3e8aa10b3e381973U, 0xbc8df4c8bd3171faU, 0xbe2423073cd4ef2cU,
  0x3e02dda8bdd4ef2cU, 0xbe2f3a273d66adc5U, 0xbb0df4c8bd9fb361U, 0x3c54ef2c3dddce78U,
  0x3de6adc5be5726ffU, 0x3b0df4c8bc786c5eU, 0xbdcc0fe03e190be8U, 0x3dddce783de6adc5U,
  0x3de6adc53e16d414U, 0x3d3a51463c8df4c8U, 0x3dcc0fe03d433093U, 0xbdc33093bd1fb361U,
  0x3c786c5ebe8cd8deU, 0x3e074d4f3cd4ef2cU, 0x3d2892aebd16d414U, 0xbde23e1fbc54ef2cU,
  0x3dd4ef2cbe074d4fU, 0xbd4c0fe03d5dce78U, 0xbdddce78be81c1bfU, 0x3cb171fa3df86c5eU,
  0x3d6f8d12be00a5d5U, 0x3c786c5ebd3171faU, 0x3dd4ef2c3d3a5146U, 0x3dddce78bbd4ef2cU,
  0x3e1d7b8e3deb1d6bU, 0x3c0df4c8bd80a5d5U, 0x3c0df4c83e074d4fU, 0x3c3171fabdb5e1a0U,
  0xbd433093be4e47b3U, 0x3db171fa3cd4ef2cU, 0x3e21eb34be3c891aU, 0x3dbec0edbd8df4c8U,
  0x3c54ef2cbe433093U, 0xbd96d4143e02dda8U, 0xbe0df4c8bdc33093U, 0x3e16d4143dd95ed2U,
  0xbd6f8d12bcf86c5eU, 0x3c9fb361bdb5e1a0U, 0x3b0df4c83dc33093U, 0x3e2d02543d66adc5U,
  0x3df86c5e3dad0254U, 0xbe21eb34bdcc0fe0U, 0x3e074d4f3e102c9bU, 0x3d0df4c83d54ef2cU,
  0xbd3171fabd2892aeU, 0x3cf86c5e3da42307U, 0x3e40f8c0be623e1fU, 0x3d1fb361bd5dce78U,
  0xbd8a68d33e54bd90U, 0x3dfb30033d4d0d12U, 0xbe737f863d4d0d12U, 0x3e121950bddc6e0dU,
  0xbea2c260be3b1bedU, 0xbe3b1bedbd99c9ceU, 0xbba40a75be82b855U, 0xbe217a4b3cf60fb0U,
  0x3e240a75bd94a97aU, 0xbce18e61bdd22d66U, 0x3d8f8926bd42cc6bU, 0xbe35fb9abd2e4b1cU,
  0xbc760fb03de6aeb5U, 0xbd574dba3c760fb0U, 0x3dbdac173c240a75U, 0x3d05487fbe4d0d12U,
  0xbdebcf083cf60fb0U, 0x3cf60fb03d0f8926U, 0xbd9eea21bd618e61U, 0x3e217a4bbd42cc6bU,
  0xbe2e4b1cbe02b855U, 0xbe2bbaf2bc760fb0U, 0x3df0ef5cbe80282bU, 0xbe2bbaf23d05487fU,
  0x3d19c9cebd0f8926U, 0x3c4d0d12bdebcf08U, 0x3d42cc6bbd99c9ceU, 0x3d94a97a3d19c9ceU,
  0x3dbdac173c240a75U, 0x3d2e4b1c3e388bc4U, 0xbd618e613da92ac9U, 0xbe121950bd8f8926U,
  0x3d4d0d123df60fb0U, 0xbcb88bc43dfb3003U, 0xbe336b703e00282bU, 0x3e336b70bd19c9ceU,
  0xbc4d0d12be292ac9U, 0xbc8f8926bd19c9ceU, 0x3dc7ecbfbdebcf08U, 0xbdcd0d123d85487fU,
  0x3d388bc43ba40a75U, 0x3d0f8926bdf60fb0U, 0x3e00282b3dc2cc6bU, 0xbce18e61bd240a75U,
  0x3c240a75bd8f8926U, 0x3dc7ecbf3db88bc4U, 0x3cf60fb0bd9eea21U, 0xbe292ac9bc760fb0U,
  0xbba40a75bce18e61U, 0x3cf60fb03d760fb0U, 0xbdcd0d123dfb3003U, 0x3d4d0d123db88bc4U,
  0xbd85487fbd19c9ceU, 0xbd760fb000000000U, 0x3e30db46be7b3003U, 0xbe760fb03d388bc4U,
  0xbc240a753e07d8a9U, 0xbdf60fb0be217a4bU, 0x3d2e4b1cbb240a75U, 0xbe240a7500000000U,
  0x3dcd0d123dc7ecbfU, 0x3debcf08bdd74dbaU, 0x3db88bc4bdcd0d12U, 0xbd05487fbdebcf08U,
  0x3db88bc43db88bc4U, 0x3df60fb03d8f8926U, 0xbe54bd903ccd0d12U, 0x3e02b855bbf60fb0U,
  0xbe0a68d3bdb36b70U, 0xbd574dbabce18e61U, 0x3e121950bea2c260U, 0xbe70ef5c3d94a97aU,
  0x3dfb30033dd22d66U, 0xbba40a75be42cc6bU, 0x3e14a97a3ca40a75U, 0xbdae4b1cbdae4b1cU,
  0xbd42cc6b3d4d0d12U, 0x3cf60fb0be0f8926U, 0x3dfb3003be1739a4U, 0xbc240a75be921950U,
  0x3d7dbb7c3d7dbb7cU, 0xbdb8885a3d66aa70U, 0xbd9bb30cbcfdbb7cU, 0x3e1e952d3e7ad95aU,
  0x3c0a66443c8a6644U, 0x3d902a86be0a6644U, 0xbdcf99653d7232f6U, 0x3db2c4173dacffd4U,
  0xbcfdbb7cbe245970U, 0xbca1774fbc38885aU, 0x3d38885a3c0a6644U, 0xbd4f9965bca1774fU,
  0xbd84a2013da73b92U, 0x3c8a66443ce6aa70U, 0xbdc410e03ccf9965U, 0x3d38885a00000000U,
  0x3da1774f3d5b21ebU, 0x3dd55da83d7dbb7cU, 0xbce6aa70bce6aa70U, 0x3dacffd43e2a1db3U,
  0xbca1774f3d9bb30cU, 0x3dd55da8be102a86U, 0xbe32c417bce6aa70U, 0xbd7dbb7cbda1774fU,
  0xbce6aa70be8330f0U, 0x3c0a66443b38885aU, 0x3d902a86bda1774fU, 0xbdf232f6be078422U,
  0x3d4410e03e3e4c9dU, 0xbdacffd43cb8885aU, 0x3d2cffd4bd21774fU, 0x3e32c417bd8a6644U,
  0x3d38885abd9bb30cU, 0x3d8a6644be0d4865U, 0xbde0e62ebc0a6644U, 0x3e0a66443db8885aU,
  0xbdacffd43d7dbb7cU, 0xbda1774fbd21774fU, 0xbe878422bd9bb30cU, 0x3d38885abde0e62eU,
  0xbdfdbb7cbe8bd754U, 0x3d38885abd38885aU, 0x3dec6eb3be15eec9U, 0xbe4f9965be3e4c9dU,
  0x3dd55da83df232f6U, 0x3d9bb30cbd7232f6U, 0x3d9bb30c3d9bb30cU, 0xbd4410e0be01bfdfU,
  0xbe01bfdfbd66aa70U, 0xbda73b923d2cffd4U, 0xbd84a2013de0e62eU, 0x3d2cffd43dec6eb3U,
  0x3d38885a3dc9d522U, 0xbd38885a3d21774fU, 0xbe2fe1f6bd4410e0U, 0xbdb8885abe4410e0U,
  0xbe95eec9bda1774fU, 0x3d84a2013dacffd4U, 0x3d4410e0bd7232f6U, 0xbe3e4c9dbe2cffd4U,
  0xbc8a66443e6c6eb3U, 0x3d9bb30cbd66aa70U, 0x3df232f6bc38885aU, 0xbe0d4865be15eec9U,
  0x3d4f9965be2cffd4U, 0x3d8a6644bd95eec9U, 0x3dcf9965U, 0x3c8a66443e102a86U,
  0xbde0e62e3de6aa70U, 0x3ce6aa70be0a6644U, 0xbe46f301bd95eec9U, 0x3e21774fbde6aa70U,
  0xbeb71749bd9bb30cU, 0xbccf99653dd55da8U, 0xbdb2c417bd4410e0U, 0x3c8a6644bdf7f739U,
  0x3dcf99653e60e62eU, 0x3da1774fbd902a86U, 0x3d4f99653dc9d522U, 0xbe2a1db3bd7dbb7cU,
  0x3dfcb5ccU, 0xbe2caf6ebe200cbdU, 0xbe914eef3d6bdce1U, 0xbc4a2b0a3cca2b0aU,
  0x3df44957bd6bdce1U, 0x3d39521e3d4a2b0aU, 0x3d5b03f63db0e5a9U, 0x3d06c75c3d5b03f6U,
  0xbe529780bc4a2b0aU, 0xbe200cbdbe029121U, 0x3d86c75cbdfcb5ccU, 0xbd97a0483d39521eU,
  0xbd86c75cbde3706bU, 0x3d97a048bc06c75cU, 0x3b86c75c3d6bdce1U, 0xbe8afd97bd7cb5ccU,
  0xbe2442f83e200cbdU, 0xbc4a2b0a3db9521eU, 0xbe2879333ca87933U, 0xbda87933bd6bdce1U,
  0x3d5b03f6be287933U, 0xbc4a2b0abdd29780U, 0x3c86c75cU, 0xbc86c75c3dc1be94U,
  0xbd86c75c3dfcb5ccU, 0x3d4a2b0abd5b03f6U, 0xbcca2b0abd287933U, 0xbd7cb5cc3dca2b0aU,
  0x3cca2b0aU, 0xbee58b89U, 0x3debdce1bc4a2b0aU, 0xbdc1be94bd4a2b0aU,
  0x3cebdce13dd29780U, 0x3c4a2b0abc06c75cU, 0xbea00cbdbda87933U, 0xbd2879333e029121U,
  0xbdfcb5ccbda00cbdU, 0x3c06c75cbd8f33d2U, 0x3c06c75cbdb0e5a9U, 0xbda00cbdbda87933U,
  0x3dd297803d8f33d2U, 0xbb86c75cbe744957U, 0x3debdce13ddb03f6U, 0xbc4a2b0a3c4a2b0aU,
  0xbcca2b0abdca2b0aU, 0xbe39521ebf05b9cdU, 0xbca879333c06c75cU, 0xbe029121bd97a048U,
  0xbe0afd97be0afd97U, 0xbca87933bdf44957U, 0xbe914eefbe287933U, 0xbd4a2b0a3e7cb5ccU,
  0xbe529780be06c75cU, 0xbdb9521ebe39521eU, 0xbc06c75cbdfcb5ccU, 0xbc06c75c3d4a2b0aU,
  0x3ddb03f63dd29780U, 0xbb86c75cbe5f3a30U, 0x3e0291213cca2b0aU, 0xbd17a0483d7cb5ccU,
  0x3e41be94be1bd682U, 0xbe529780bef66474U, 0x3e200cbdbd97a048U, 0x3d86c75cbdebdce1U,
  0x3c86c75cbcca2b0aU, 0x3db9521ebe287933U, 0xbe9df1a0bcca2b0aU, 0x3cca2b0a3dfcb5ccU,
  0xbd4a2b0abca87933U, 0xbe287933bde3706bU, 0xbda00cbdbe200cbdU, 0xbd8f33d2bd8f33d2U,
  0x3d28793300000000U, 0xbdca2b0abea00cbdU, 0xbd287933bddb03f6U, 0xbd2879333db0e5a9U,
  0x3dc1be94be2caf6eU, 0xbe200cbdbdebdce1U, 0x3d4a2b0abe0f33d2U, 0xbc4a2b0abdca2b0aU,
  0xbc24aecd3dd2fff7U, 0xbdf706343d9f8957U, 0x3e0af37d3d1a63e0U, 0x3d9018f3bcb944a7U,
  0x3cb944a7be5ab828U, 0xbd85ce07bd9f8957U, 0xbba4aecdbddd4ae3U, 0xbe5ab828bd4dda80U,
  0x3dd2fff73cb944a7U, 0xbe00a890U, 0x3d2ef9ba3db41f30U, 0xbe2741883bf70634U,
  0x3d24aecd00000000U, 0xbdfc2baa3ddd4ae3U, 0x3dbe6a1d3c770634U, 0x3d62705a3d1018f3U,
  0xbde795d03df1e0bdU, 0x3c4dda80bc24aecdU, 0xbd2ef9babce2705aU, 0xbd85ce073df1e0bdU,
  0xbd9f8957be1018f3U, 0xbb24aecdbd1a63e0U, 0xbe12abafbdb944a7U, 0xbe4b47c53d953e6aU,
  0xbd2ef9babda9d443U, 0x3ba4aecdbd9a63e0U, 0xbd1a63e03d80a890U, 0x3c4dda80bdcdda80U,
  0x3e1a63e000000000U, 0xbdfc2baa3d953e6aU, 0x3ba4aecd3d58256dU, 0x3e3bd762bd3944a7U,
  0x3ce2705a3dfc2baaU, 0x3e274188bc9018f3U, 0x3d1a63e0be0af37dU, 0x3dc8b50abdf1e0bdU,
  0xbd4dda80bc9018f3U, 0x3e17d1253de795d0U, 0xbd80a890be438f93U, 0xbe438f93bd438f93U,
  0xbe2c66ff3da4aecdU, 0xbe1018f33bf70634U, 0xbc770634bd6cbb47U, 0xbd9a63e0bde795d0U,
  0x3e17d1253d58256dU, 0x3dc38f93bce2705aU, 0x3e00a8903da4aecdU, 0x3da9d4433c770634U,
  0xbd62705abe033b4bU, 0x3d05ce073e1f8957U, 0xbe7706343ce2705aU, 0x3d6cbb47be221c12U,
  0xbe0d86383d3944a7U, 0x3e17d125bd3944a7U, 0xbe17d125be40fcd8U, 0xbda9d4433b24aecdU,
  0xbe9018f3bddd4ae3U, 0x3d3944a7bd05ce07U, 0xbdb944a73c770634U, 0x3dc8b50abd62705aU,
  0x3da9d4433d2ef9baU, 0x3e05ce073dbe6a1dU, 0x3b24aecdbd2ef9baU, 0x3df70634bcb944a7U,
  0xbbf70634bce2705aU, 0x3e221c123dd2fff7U, 0xbea3656fbd85ce07U, 0x3db944a7bca4aecdU,
  0xbdd8256d3c770634U, 0xbd05ce07bd05ce07U, 0x3d80a890be12abafU, 0xbe48b50abccdda80U,
  0xbea3656fbce2705aU, 0xbe36b1eb00000000U, 0x3d4dda80bd1018f3U, 0x3d770634be0af37dU,
  0xbc7706343e2ef9baU, 0xbd80a8903daef9baU, 0xbcb944a73d6cbb47U, 0xbd2ef9babce2705aU,
  0x3d8f16623e4a4bc9U, 0xbe8f16623dc06d8dU, 0x3d6cd59abe591922U, 0x3df1c4b8bda7c1f8U,
  0x3dcf3ae7bda2d2daU, 0x3e42e51cbdacb116U, 0x3e27c1f8bd140580U, 0x3decd59a3e31a034U,
  0xbd4f3ae7bd4f3ae7U, 0x3cb1a0343dbb7e6fU, 0xbdacb116bcb1a034U, 0xbdf1c4b83d004909U,
  0xbdacb116be0a2744U, 0x3b9de3bc3e0f1662U, 0x3d5919223d4f3ae7U, 0x3e0f16623d6cd59aU,
  0x3e607fcf3e5b90b1U, 0xbe9ca7f53decd59aU, 0x3cb1a034bdfba2f4U, 0x3e004909be3417c2U,
  0x3d27c1f83c1de3bcU, 0x3e02c098be5b90b1U, 0x3db1a034bda2d2daU, 0x3d31a0343e1de3bcU,
  0xbd455cabbd140580U, 0x3d9405803c455cabU, 0x3d853827bdc55cabU, 0x3c6cd59abcc55cabU,
  0x3da7c1f8be07afb6U, 0xbda2d2da3dde0840U, 0x3d6cd59abd455cabU, 0x3e0f1662bcecd59aU,
  0x3d8049093de7e67cU, 0xbe8184d0bd98f49eU, 0xbc1de3bcbdf1c4b8U, 0xbc1de3bcbd004909U,
  0xbbecd59abc6cd59aU, 0xbb9de3bcbd98f49eU, 0xbcb1a034bcecd59aU, 0xbdd42a0500000000U,
  0xbe004909bdb1a034U, 0x3cd91922bd98f49eU, 0xbd31a034bc8a2744U, 0xbde7e67c3d3b7e6fU,
  0xbc1de3bcbe47d43aU, 0xbe118df13dd91922U, 0x3d455cabbdca4bc9U, 0x3d8049093d27c1f8U,
  0x3da2d2dabdb68f51U, 0xbe4cc3583d940580U, 0xbd6cd59abe83fc5fU, 0xbd62f75e3c9de3bcU,
  0xbd455cabbcb1a034U, 0xbc9de3bcbc9de3bcU, 0x3cecd59abd853827U, 0xbe22d2dabd3b7e6fU,
  0xbda7c1f8be2cb116U, 0xbd140580be368f51U, 0xbdc06d8dbd140580U, 0xbe76b3d63dcf3ae7U,
  0xbdf1c4b8bd140580U, 0xbd1405803db68f51U, 0x3cc55cab3c1de3bcU, 0xbd98f49eU,
  0x3c8a27443b1de3bcU, 0xbe8b630c3cd91922U, 0xbcecd59abe6f4d29U, 0x3de2f75ebd1de3bcU,
  0xbd6cd59abdd42a05U, 0xbdd91922be22d2daU, 0x3c8a27443da2d2daU, 0xbe76b3d6be22d2daU,
  0xbd8f1662bd804909U, 0xbd76b3d6bd27c1f8U, 0x3d8a2744bcecd59aU, 0xbe205b4bbc455cabU,
  0xbdde0840bd591922U, 0xbe167d0f3e1b6c2dU, 0x3d62f75e3d31a034U, 0xbd27c1f8bd31a034U,
  0xbd98a6febbec5d68U, 0x3d98a6fe3e73c054U, 0xbe09e128bcb1460eU, 0xbd4ed1bbbe1b1d4dU,
  0x3cb1460e3e2ecfc0U, 0xbdfb233fbdf636a2U, 0xbd3b1f483cc4f882U, 0x3e04f48bbdfb233fU,
  0x3da76cd53cd8aaf5U, 0xbe9c5874be714a05U, 0x3d4ed1bbbd58aaf5U, 0xbe24f686bbec5d68U,
  0xbe1144133d84f48bU, 0xbb1d939b3d4ed1bbU, 0x3d1d939bbe2ecfc0U, 0xbe0ecdc43d98a6feU,
  0xbdb1460e3c6c5d68U, 0xbb1d939b3c44f882U, 0xbd8ecdc4bdd3be58U, 0x3d09e128bd7636a2U,
  0x3cec5d683d09e128U, 0xbd0007eebde2842fU, 0xbcec5d683df14a05U, 0x3e1630b0be2c5972U,
  0x3d84f48b3cc4f882U, 0xbe827e3cbe09e128U, 0xbc44f882be51480aU, 0xbd3b1f483ddd9792U,
  0xbd3b1f483cd8aaf5U, 0x3dc00be53d7636a2U, 0xbd276cd53d13ba61U, 0xbe876ad93d31460eU,
  0xbcc4f8823dec5d68U, 0x3cc4f882bd89e128U, 0x3cc4f882bd276cd5U, 0xbc1d939b3c89e128U,
  0x3e476ed0bcb1460eU, 0x3dd8aaf53d84f48bU, 0x3b9d939bbbec5d68U, 0xbc1d939b00000000U,
  0xbd98a6fe3d31460eU, 0xbd9d939bbe13ba61U, 0x3bec5d68bcec5d68U, 0xbe31460e3dd3be58U,
  0xbe0007eebdb632abU, 0x3c89e1283c44f882U, 0x3dd3be583b1d939bU, 0xbd84f48bbd9d939bU,
  0xbd9d939b3d44f882U, 0xbe228038bd4ed1bbU, 0x3de770cc3da28038U, 0x3db632abbc1d939bU,
  0x3d0007ee3d31460eU, 0x3cb1460e3c6c5d68U, 0xbe04f48b3d9d939bU, 0x3d6c5d683cec5d68U,
  0x3de770cc3dc00be5U, 0xbdc4f882be33bc5dU, 0xbd44f8823d31460eU, 0x3c44f882bd1d939bU,
  0xbc6c5d68be027e3cU, 0xbe3d9596be94f589U, 0xbdc4f8823e0c5776U, 0x3db632abbdc00be5U,
  0x3cc4f8823e62842fU, 0x3d31460e3d6c5d68U, 0x3dc4f8823e09e128U, 0xbd3b1f483e2c5972U,
  0x3dced1bb3d13ba61U, 0xbe09e128bc9d939bU, 0xbdd3be583d6c5d68U, 0xbe4ed1bbbdec5d68U,
  0x3c9d939bbd31460eU, 0xbb1d939bbdf636a2U, 0x3d1d939bbe114413U, 0xbe2009e93d09e128U,
  0xbd84f48bbdf636a2U, 0xbe2ecfc0be64fa7dU, 0xbc9d939bbc6c5d68U, 0x3dd3be58be0007eeU,
  0x3e5696473d437725U, 0xbcfef4733c29f84dU, 0x3d07f9d73d6df538U, 0xbdd8b62f3db277eaU,
  0xbe03ba08be12995cU, 0x3d18f912bda5b87eU, 0xbe1d38e1bdd8b62fU, 0xbc07f9d73df23507U,
  0x3c07f9d73db6b7b9U, 0xbd9d38e1bca9f84dU, 0x3df23507be0e598dU, 0x3da9f84dbd107974U,
  0x3e05d9f03c87f9d7U, 0xbda178afbd8c39a6U, 0x3df235073d3277eaU, 0xbdb6b7b9bde5759bU,
  0x3e18f9123e107974U, 0x3d65759b3e36b7b9U, 0xbc87f9d73d87f9d7U, 0x3d87f9d73e503691U,
  0xbdbaf788bd8c39a6U, 0xbcdcf5fd3d83ba08U, 0xbe2178afbd87f9d7U, 0xbd94b943bd6df538U,
  0xbc6df5383dfef473U, 0xbdfef4733ddcf5fdU, 0x3ddcf5fdbd87f9d7U, 0xbd547660bd94b943U,
  0x3c4bf6c2bd437725U, 0xbe5476603d94b943U, 0x3dcbf6c2bde9b56aU, 0xbd2178af00000000U,
  0x3e2398973d7ef473U, 0xbd9079743dedf538U, 0xbd18f9123e2e381bU, 0x3c07f9d73dd8b62fU,
  0xbdbaf788bde9b56aU, 0xbd29f84d3d4bf6c2U, 0xbe86e9e3bd907974U, 0x3b07f9d7be1d38e1U,
  0xbd7674d63dd8b62fU, 0xbdbf3756bcfef473U, 0x3e36b7b9be679582U, 0xbdcbf6c2bc4bf6c2U,
  0x3d4377253d107974U, 0xbdc377253d7674d6U, 0xbdb6b7b9be0e598dU, 0x3d437725bdc7b6f4U,
  0x3db6b7b93d107974U, 0x3d18f9123d547660U, 0x3b07f9d73e5cf5fdU, 0xbd4bf6c23bcbf6c2U,
  0xbd98f912bd94b943U, 0x3c07f9d73da178afU, 0xbe0c39a6bd107974U, 0xbc07f9d7be019a21U,
  0xbd4377253dc37725U, 0xbcbaf788bda5b87eU, 0x3e14b943be82aa15U, 0x3cdcf5fdbd107974U,
  0xbc29f84dbe03ba08U, 0xbcedf5383d18f912U, 0xbd83ba083d547660U, 0xbd5cf5fdbe0a19beU,
  0xbdd8b62fbcdcf5fdU, 0x3d9079743d18f912U, 0x3d3277ea3d4bf6c2U, 0xbd65759bbd4bf6c2U,
  0xbdbf3756be47b6f4U, 0xbd5cf5fd3d5cf5fdU, 0xbe07f9d7bdcbf6c2U, 0xbe0e598dbe808a2dU,
  0xbda9f84d3df23507U, 0xbe019a21bd29f84dU, 0xbcbaf788be45970cU, 0x3dbf37563dd47660U,
  0xbd87f9d7be3277eaU, 0xbe6355b33db277eaU, 0xbd4bf6c23dd03691U, 0xbe1d38e13bcbf6c2U,
  0xbe57b622be113b42U, 0x3d19c6463d846abcU, 0xbe59d8e3bbcd085dU, 0x3e83595cbd3bf255U,
  0xbdd9d8e33d77bf70U, 0xbd4d085d3d88b03eU, 0x3da2514abd559361U, 0xbe37acd3bd9e0bc8U,
  0xbd9e0bc8be6263e7U, 0x3e0cf5c03e46a01aU, 0xbe1be907bdde1e65U, 0xbe0ad2ff00000000U,
  0x3d22514a3d80253aU, 0xbd559361be314490U, 0x3e08b03e3e202e89U, 0xbde6a9693daf21cfU,
  0xbcef346cbe879edeU, 0xbde263e73cef346cU, 0xbe4f2b1ebe1580c4U, 0x3e046abc3d559361U,
  0xbe28b98d3d22514aU, 0x3df379ee3d8cf5c0U, 0xbc88b03ebdcd085dU, 0x3d447d59bda696ccU,
  0x3da696ccbe6263e7U, 0x3e113b423bcd085dU, 0xbdd593613db7acd3U, 0x3c2adc4e3d66a969U,
  0x3c4d085d3d559361U, 0xbcbbf255be1e0bc8U, 0x3c6f346c3e4f2b1eU, 0x3cbbf255bd113b42U,
  0xbbcd085dbdbbf255U, 0x3d113b42bd80253aU, 0xbe135e03bdbbf255U, 0x3e5593613c08b03eU,
  0xbc08b03e3d22514aU, 0xbda696cc3caadc4eU, 0x3d9e0bc8bd846abcU, 0x3c4d085d3c88b03eU,
  0xbe2cff0ebe314490U, 0x3c2adc4e3daf21cfU, 0xbdb7acd33daf21cfU, 0x3b88b03e3d4d085dU,
  0x3dd593613d9580c4U, 0xbd447d59bd9580c4U, 0x3d19c6463c99c646U, 0x3dcd085dbd4d085dU,
  0xbda2514a00000000U, 0x3d4d085d3c6f346cU, 0x3db367513c6f346cU, 0x3e1be907bd00253aU,
  0xbd559361bdaf21cfU, 0x3dd9d8e3bd113b42U, 0xbde263e7bd99c646U, 0xbc88b03ebd5e1e65U,
  0xbbcd085dbe314490U, 0xbda696cc3e0247fbU, 0xbd2adc4e3dd59361U, 0xbbcd085dbde6a969U,
  0xbd19c646bc2adc4eU, 0xbd846abc3ccd085dU, 0x3e2adc4e3d559361U, 0x3deaeeeb3d447d59U,
  0xbd80253a3dde1e65U, 0xbd66a969be28b98dU, 0x3dc8c2dbbb08b03eU, 0x3cef346c3e314490U,
  0x3bcd085d3ccd085dU, 0x3d19c6463cde1e65U, 0xbe0cf5c0bd846abcU, 0x3c99c6463c6f346cU,
  0xbd19c646bd4d085dU, 0xbd9580c43e80253aU, 0xbe57b622bd77bf70U, 0x3e0f1881bbcd085dU,
  0xbdaf21cf3d88b03eU, 0x3caadc4ebe1580c4U, 0x3c4d085d3e39cf94U, 0x3c88b03ebd9580c4U,
  0x3e4687773d617d6bU, 0xbe9ba316bb9cdcd0U, 0xbd7ee6d2bc6b4b38U, 0xbd4de1d1bdd7af9eU,
  0x3e4de1d1bde17d6bU, 0x3cb0786abd1cdcd0U, 0x3d8941363c441404U, 0x3d9cdcd03d9cdcd0U,
  0xbe72a592bddc9684U, 0xbd0941363cd7af9eU, 0xbcb0786abb1cdcd0U, 0x3d7519053d1cdcd0U,
  0x3db55f503d130f03U, 0x3d1cdcd03b9cdcd0U, 0x3e1a695d3b9cdcd0U, 0xbdc414043d57af9eU,
  0x3d30786a3d751905U, 0xbe48faea3db55f50U, 0xbde17d6bbe6dbeabU, 0xbda6aa9d3b9cdcd0U,
  0x3de664523cb0786aU, 0x3d4de1d1bda1c3b6U, 0xbda6aa9d3d094136U, 0x3dc41404bdb55f50U,
  0xbdab9184bb9cdcd0U, 0xbc9cdcd0bd4de1d1U, 0x3c441404bcb0786aU, 0x3df0321ebcfee6d2U,
  0xbde17d6b3cb0786aU, 0xbcb0786a3e0e281cU, 0x3e32ebdd3da6aa9dU, 0x3da1c3b6bd6b4b38U,
  0x3de17d6b3d094136U, 0xbe70321ebcfee6d2U, 0x3c441404bd894136U, 0xbc8941363dc41404U,
  0xbcd7af9ebdf51905U, 0x3d97f5eabe2b9184U, 0x3d094136bd751905U, 0x3d617d6bbd9cdcd0U,
  0xbd3a4637bd8e281cU, 0xbddc9684bdba4637U, 0x3dfee6d2be094136U, 0x3dd2c8b83db55f50U,
  0xbd0941363d6b4b38U, 0x3d0941363e130f03U, 0x3dd2c8b8bd26aa9dU, 0xbde664523ddc9684U,
  0x3e68d7c5bd130f03U, 0xbe52c8b83d6b4b38U, 0xbd617d6bbe37d2c4U, 0xbc1cdcd0bdba4637U,
  0x3cfee6d2bd894136U, 0xbcc41404bdb0786aU, 0xbc9cdcd03dc41404U, 0xbcd7af9ebde66452U,
  0xbe30786abe01e6dcU, 0xbd751905be24372aU, 0x3e0bb4a93ceb4b38U, 0xbe094136bdcde1d1U,
  0xbda6aa9d3dc8faeaU, 0xbde664523e0bb4a9U, 0x3d7ee6d2bdcde1d1U, 0x3b9cdcd0bdc8faeaU,
  0xbcd7af9e3d3a4637U, 0xbe8cee633e1cdcd0U, 0xbd6b4b38be666452U, 0x3c894136be24372aU,
  0xbd1cdcd03c9cdcd0U, 0xbd130f033d30786aU, 0xbdd2c8b8bceb4b38U, 0xbd57af9ebe6b4b38U,
  0xbe70321ebddc9684U, 0x3e0bb4a9be21c3b6U, 0x3e01e6dcbd1cdcd0U, 0xbe109b903d8e281cU,
  0xbe130f033c9cdcd0U, 0xbd7519053dc8faeaU, 0x3cd7af9ebd130f03U, 0x3d845a503e094136U,
  0xbd5245bebe0a564eU, 0xbcb1124f3cc73499U, 0x3dc73499bcc73499U, 0x3c04cdbbbcdd56e3U,
  0x3dbc2374bbb1124fU, 0xbd473499bcf3792dU, 0x3d8a564ebdd7ce50U, 0x3db69ae13dedf09aU,
  0xbe8209723db69ae1U, 0xbda07898bbb1124fU, 0xbd8fdee03bb1124fU, 0xbd0fdee0bdc1ac06U,
  0x3da6012a3d0fdee0U, 0x3d8fdee03d5d56e3U, 0xbc31124f3d73792dU, 0xbe395f2bbb31124fU,
  0xbe0d1a97bdf3792dU, 0xbd31124fbd1af005U, 0x3d5d56e3bc04cdbbU, 0xbd4734993dd245beU,
  0x3d9af0053d5245beU, 0xbc84cdbbbd473499U, 0x3d8a564e3d0fdee0U, 0x3d3c23743da6012aU,
  0xbe2b89bd3dc73499U, 0xbc9af005bdab89bdU, 0xbc9af005bd5d56e3U, 0xbd6868083d686808U,
  0xbc31124fbe0fdee0U, 0xbe182bbcbdd7ce50U, 0xbda6012a3b31124fU, 0x3d26012abd73792dU,
  0xbd31124f3c04cdbbU, 0x3d0fdee03d1af005U, 0xbe0d1a973d26012aU, 0xbe84cdbbbdd7ce50U,
  0xbe31124fbdedf09aU, 0x3dccbd2bbe0a564eU, 0x3dab89bdbd686808U, 0xbe12a329bc84cdbbU,
  0x3d5d56e3bd8fdee0U, 0xbde2df75bd5d56e3U, 0xbc31124fbd84cdbbU, 0xbe04cdbbbd0fdee0U,
  0xbe33d698be0a564eU, 0xbdb69ae1be4cbd2bU, 0xbd9567733db1124fU, 0xbd686808be550a07U,
  0x3c31124f3d473499U, 0xbdd7ce50bd73792dU, 0xbbb1124fbdd7ce50U, 0xbe182bbcbd0fdee0U,
  0xbe182bbcbdd7ce50U, 0x3d84cdbbbe80a74dU, 0xbc04cdbbbc04cdbbU, 0xbe04cdbb3d473499U,
  0x3d1af005bd5d56e3U, 0xbd5d56e3bda07898U, 0x3d956773bd3c2374U, 0xbdd245be3c84cdbbU,
  0xbe0d1a97be0a564eU, 0x3d3c2374be73792dU, 0x3d26012abd26012aU, 0x3d956773bcdd56e3U,
  0x3e395f2b3e41ac06U, 0xbda078983e182bbcU, 0xbe0d1a97bdfe8a52U, 0xbd8fdee03dc1ac06U,
  0xbda07898be84cdbbU, 0x3e020972be84cdbbU, 0x3da6012a3dab89bdU, 0xbe12a3293c31124fU,
  0x3e0209723cc73499U, 0xbc9af005be369ae1U, 0x3e65a3be3cb1124fU, 0x3dd245be3dd245beU,
  0xbcb1124fbe84cdbbU, 0xbe04cdbbbeafb02aU, 0xbcdd56e3be1af005U, 0xbb31124fbd686808U,
  0xbddc00d3bd3fcc34U, 0x3db483f53e0d0717U, 0x3d12ab37bdb483f5U, 0xbc0762f83e2c0dc6U,
  0xbcf83571bb3483f5U, 0xbc3483f5bc61a4f2U, 0xbe184f57bc8762f8U, 0x3de1a4f2bce1a4f2U,
  0x3dc570543d8762f8U, 0xbd8d07173c3483f5U, 0x3dfdd991U, 0x3d92ab37bcf83571U,
  0x3da93bb6bccb1474U, 0x3e01bed83e5c00d3U, 0x3d3483f5be50b893U, 0xbccb14743e3483f5U,
  0xbe0a3508be2669a6U, 0xbbb483f53d8d0717U, 0x3d3483f5bdb483f5U, 0x3cb483f53d8762f8U,
  0xbdc570543dc57054U, 0x3d12ab373c8762f8U, 0x3d1df3763d4b1474U, 0x3df83571bdba2815U,
  0x3dba2815bd81bed8U, 0xbdb483f53cf83571U, 0xbd61a4f23d92ab37U, 0x3dba2815bbb483f5U,
  0x3d9df376bce1a4f2U, 0x3d8d07173df29151U, 0x3c9df376bdcb1474U, 0xbc9df376bd984f57U,
  0xbc3483f5bd783571U, 0x3cb483f5bd1df376U, 0x3e0762f83d293bb6U, 0xbd0762f83c0762f8U,
  0x3da39796bd0762f8U, 0xbda397963c0762f8U, 0xbd0762f83db483f5U, 0x3d1df3763cb483f5U,
  0x3d293bb6bdb483f5U, 0xbd8762f8bc8762f8U, 0xbe96e64f3d92ab37U, 0x3c61a4f2bbb483f5U,
  0xbda397963d0762f8U, 0x3df291513d12ab37U, 0x3d92ab373d6ced32U, 0xbe729151be0fd927U,
  0x3d0762f8bdba2815U, 0x3d61a4f2bd4b1474U, 0xbc3483f5bce1a4f2U, 0xbd1df3763d92ab37U,
  0x3db483f53cb483f5U, 0xbe8055d03c3483f5U, 0xbd78357100000000U, 0x3d3483f5bd9df376U,
  0x3dcb1474bd3483f5U, 0xbc61a4f2be375605U, 0xbeb31aed3daedfd5U, 0xbe0a3508bc8762f8U,
  0x3bb483f5U, 0x3e0762f83d293bb6U, 0xbc9df376bd6ced32U, 0xbe8e701fbe484264U,
  0x3d6ced32bdcb1474U, 0x3dba2815bbb483f5U, 0xbc0762f83df29151U, 0x3d61a4f23d1df376U,
  0x3c3483f53ccb1474U, 0xbe2c0dc6be565cb3U, 0xbcf835713d6ced32U, 0xbde1a4f2bc0762f8U,
  0x3deced32bdb483f5U, 0xbdcb1474bdbfcc34U, 0xbe592ec3bd783571U, 0xbe1b2167bd3483f5U,
  0xbc8762f8bce1a4f2U, 0x3bb483f53e674912U, 0x3ce1a4f2be429e44U, 0xbe20c586bd61a4f2U,
  0x3ce19ba4bdba2067U, 0xbcb47c83bc075d62U, 0xbe20bee53c347c83U, 0x3d619ba43d5653dcU,
  0xbda934bb3e2662c9U, 0xbd1decf33daed89fU, 0xbde19ba4be8a2f54U, 0xbc075d62bda390d7U,
  0xbdc5682f3d81b97eU, 0xbc075d62bb347c83U, 0xbd075d623b347c83U, 0xbd2934bbbd4b0c13U,
  0x3d98490f3ce19ba4U, 0x3c875d623e20bee5U, 0xbe2390d7bde73f88U, 0x3ce19ba43d12a52aU,
  0x3d3fc44bbe728750U, 0xbc875d623c347c83U, 0xbe3cf259bdc5682fU, 0xbcb47c83bcb47c83U,
  0xbe1b1b013d9decf3U, 0xbddbf7c03e2ed89fU, 0xbdece36cbeb3138aU, 0xbcb47c833dcb0c13U,
  0xbd875d62bd2934bbU, 0x3c875d62be2c06adU, 0xbde73f883e1b1b01U, 0x3dbfc44b3dece36cU,
  0x3dcb0c13be1b1b01U, 0xbd875d623e3cf259U, 0xbd347c83be45682fU, 0xbd3fc44b3ddbf7c0U,
  0xbb347c83be805085U, 0xbc875d623cb47c83U, 0xbe848b703b347c83U, 0xbc875d62be0a2f54U,
  0xbd5653dcbd98490fU, 0xbcf82b34bda934bbU, 0x3d3fc44bbdfdcf18U, 0xbe3fc44b3da934bbU,
  0xbe42963dbd92a52aU, 0x3d347c83bd92a52aU, 0xbde19ba4bd5653dcU, 0xbd619ba4bd8d0146U,
  0x3d98490fbe3fc44bU, 0x3d347c833de19ba4U, 0xbd98490fbccb0c13U, 0xbdf82b343c619ba4U,
  0xbdaed89fbcb47c83U, 0xbd92a52abd2934bbU, 0xbe3cf259bbb47c83U, 0x3daed89f3c9decf3U,
  0xbbb47c83be45682fU, 0x3d98490f3c347c83U, 0xbc347c83be6ce36cU, 0xbe5925cebe1b1b01U,
  0x3cb47c833b347c83U, 0xbe6ce36cbb347c83U, 0x3d81b97e3d12a52aU, 0xbd619ba4bd075d62U,
  0xbd92a52abdb47c83U, 0x3e18490f3e2c06adU, 0xbd9decf3be0d0146U, 0xbe85f469bd92a52aU,
  0x3e1b1b01bd92a52aU, 0x3cf82b34bde73f88U, 0xbd9decf3bdb47c83U, 0x3dbfc44b3dc5682fU,
  0x3dd653dcbe2390d7U, 0xbda934bb3cf82b34U, 0x3d5653dcbe6a117aU, 0xbe15771cbde73f88U,
  0x3cf82b34U, 0xbe2934bbbdcb0c13U, 0x3ce19ba43d619ba4U, 0x3d5653dc3d347c83U,
  0x3d4b0c13bd3fc44bU, 0xbd92a52abd98490fU, 0xbce19ba4bda934bbU, 0xbdaed89fbe1b1b01U,
  0xbd59444b3d3ced79U, 0xbdcb18e2bde76fb5U, 0x3d4fd205bd4fd205U, 0x3d3ced79bdcb18e2U,
  0x3d8db21bbd4fd205U, 0x3b172461bbe2b692U, 0xbe4fd205bd843fd5U, 0xbe1bdd84bd8db21bU,
  0x3cf59b1ebdd48b28U, 0x3cf59b1eU, 0x3d2a08ed3c843fd5U, 0x3be2b6923ccfd205U,
  0xbde76fb53c972461U, 0xbb172461bc172461U, 0x3db83456bd926b3eU, 0xbc843fd53de2b692U,
  0x3b972461bc972461U, 0x3c1724613ccfd205U, 0x3e01e3433da096a7U, 0xbc972461bd62b692U,
  0x3d8db21b3df59b1eU, 0xbde76fb53d972461U, 0xbd62b6923be2b692U, 0xbde76fb5bd337b33U,
  0xbbe2b6923db37b33U, 0x3ccfd2053e6c28d8U, 0x3caa08edbe069c66U, 0x3e1e3a16bc3ced79U,
  0xbdb834563d172461U, 0x3ce2b6923e22f339U, 0x3db83456bd8db21bU, 0x3b172461bd043fd5U,
  0xbe172461be311ea2U, 0xbdaa08edbd759b1eU, 0xbcaa08edbcbced79U, 0xbd2096a7bd88f8f8U,
  0xbd59444b3d0db21bU, 0x3d7f0d643e311ea2U, 0xbe100eacbcbced79U, 0xbd043fd5bd59444bU,
  0xbd337b333daec210U, 0x3e22f3393e3a90e8U, 0xbdf59b1e3b972461U, 0x3e35d7c53c172461U,
  0xbe1724613ce2b692U, 0x3dd9444b3e1980f3U, 0xbd3ced79bdd48b28U, 0x3dd48b28bdb83456U,
  0xbc843fd53d0db21bU, 0x3d972461be069c66U, 0x3de76fb53dc65fbfU, 0x3c3ced79be2ec210U,
  0x3d8db21bbd759b1eU, 0xbcaa08ed3e48bc51U, 0xbe77f7afbde76fb5U, 0xbe08f8f83d62b692U,
  0xbd3ced79bc972461U, 0x3d6c28d83e8a2741U, 0xbd59444bbdfa5441U, 0x3d8db21bbdddfd6eU,
  0xbe01e343be1e3a16U, 0x3d6c28d8bd972461U, 0x3e043fd53da096a7U, 0xbcbced793daec210U,
  0x3cf59b1ebd337b33U, 0xbe100eac00000000U, 0x3dff0d64bcaa08edU, 0x3c3ced79bdff0d64U,
  0xbc1724613dddfd6eU, 0xbc843fd53dfa5441U, 0xbe4d7574be069c66U, 0x3d337b33bc62b692U,
  0xbdc1a69cbc172461U, 0x3de76fb53dff0d64U, 0xbd926b3e3b172461U, 0x3e95f6183ce2b692U,
  0xbdfa5441bce2b692U, 0x3d043fd5be0b5589U, 0xbdd9444bbd465fbfU, 0x3e337b33bd2a08edU,
  0xbd9da5613de98cb6U, 0xbd8073cabbbad6f8U, 0xbd91f7f2be11f7f2U, 0xbe40adb0be9aba05U,
  0xbda952d1bd17ceaaU, 0x3d237c19bd698cb6U, 0xbce98cb6bd237c19U, 0x3bbad6f83e468468U,
  0xbc8c213abce98cb6U, 0xbe0935debce98cb6U, 0xbd8073cabe1aba05U, 0xbddddf463d3ad6f8U,
  0x3c0c213a3dfb10ddU, 0xbe6f636ebd468468U, 0xbd17ceaabdbad6f8U, 0x3dc0adb0bd5231d7U,
  0xbe0c213a3e0c213aU, 0x3dfb10ddbcbad6f8U, 0x3d5ddf46bdef636eU, 0xbd9da561beb9614aU,
  0xbc3ad6f8bdaf2988U, 0x3ce98cb63bbad6f8U, 0x3c698cb63df53a26U, 0x3bbad6f83de3b5feU,
  0x3d753a26bd468468U, 0xbd97ceaa3b3ad6f8U, 0xbd8073cabc8c213aU, 0xbca37c193d864a82U,
  0xbde3b5fe3da37c19U, 0xbdef636ebd753a26U, 0xbbbad6f8be3214e4U, 0xbdaf2988bd5231d7U,
  0xbe37eb9c3e908244U, 0xbd97ceaabd864a82U, 0x3e0935debd17ceaaU, 0xbe1aba05bea952d1U,
  0xbd9da561bde98cb6U, 0xbd8073cabd0c213aU, 0x3dc0adb03e035f26U, 0x3dc684683ca37c19U,
  0x3d3ad6f8bbbad6f8U, 0xbe0073cabd5231d7U, 0xbd9da561bd753a26U, 0xbddddf463dbad6f8U,
  0xbdf53a263d698cb6U, 0xbe63b5fe3d17ceaaU, 0x3d753a26bdcc5b1fU, 0xbc3ad6f8bd8c213aU,
  0xbe1da5613e2c3e2dU, 0xbd237c19bda952d1U, 0x3cd231d7bd97ceaaU, 0xbe350040be7b10ddU,
  0xbd753a26bddddf46U, 0x3c8c213abdc0adb0U, 0x3d17ceaa3e0c213aU, 0x3e4684683dbad6f8U,
  0x3e1da561bc0c213aU, 0xbd3ad6f8bd9da561U, 0xbd8c213a3d17ceaaU, 0xbdaf29883cbad6f8U,
  0x3bbad6f83d97ceaaU, 0xbca37c19bd8c213aU, 0x3cd231d7bd237c19U, 0xbd753a263de3b5feU,
  0x3d0c213a3e4c5b1fU, 0xbbbad6f83dc68468U, 0x3d864a823cd231d7U, 0xbe0c213abe8935deU,
  0x3c0c213abdc68468U, 0xbbbad6f8be17ceaaU, 0x3e5ddf463d698cb6U, 0x3e2952d13e468468U,
  0xbd3ad6f83bbad6f8U, 0xbda37c193d5ddf46U, 0x3c8c213a3bbad6f8U, 0x3cbad6f83d0073caU,
  0xbe11f7f23d8073caU, 0xbe17ceaa3ce98cb6U, 0xbbbad6f8be43990cU, 0xbbbad6f83c0c213aU,
  0x3e75487bbdf286f3U, 0xbd3b68473d51748cU, 0xbdbb68473c5c7aaeU, 0x3c04499cbc84499cU,
  0x3d5c7aaebe04499cU, 0xbc84499c3db5e536U, 0xbe51748c3c84499cU, 0xbc9a55e03e85aa60U,
  0x3d3062253e255c03U, 0xbcc66e6abe3e29d0U, 0xbdf286f33d9a55e0U, 0xbe61fdbfbcb06225U,
  0xbd5c7aaebdf286f3U, 0x3dd1748cbdc66e6aU, 0x3da55c03bd51748cU, 0x3d466e6abe1a55e0U,
  0x3e35e536bdb5e536U, 0x3d5c7aae3da55c03U, 0xbdaadf143dbb6847U, 0xbc84499c3d94d2cfU,
  0x3d8f4fbebd89ccadU, 0xbdf286f33d94d2cfU, 0xbd466e6a3d3b6847U, 0xbcc66e6a3d7286f3U,
  0xbdd6f79d3d89ccadU, 0xbe14d2cfbe14d2cfU, 0xbdb062253d9a55e0U, 0xbda55c03be1a55e0U,
  0xbdbb6847be80274fU, 0x3e61fdbf3d0f4fbeU, 0xbcc66e6a3c9a55e0U, 0xbd04499cbdbb6847U,
  0x3e6780d1bd89ccadU, 0xbc9a55e03d306225U, 0xbe3062253db06225U, 0x3d7286f33dc66e6aU,
  0xbc9a55e0be070b24U, 0xbdbb68473d51748cU, 0xbd84499c3e09ccadU, 0x3c84499c3de1fdbfU,
  0xbcdc7aae3db5e536U, 0xbd7d8d15bd6780d1U, 0xbc9a55e03d306225U, 0xbeaf0161bd89ccadU,
  0xbddc7aaebe43ace1U, 0x3e0c8e35be4eb303U, 0x3c84499cbd3b6847U, 0xbd84499cbde1fdbfU,
  0x3df286f3bdb06225U, 0xbbb062253d3b6847U, 0xbe35e5363d255c03U, 0x3d51748c3db5e536U,
  0xbd8f4fbebd0f4fbeU, 0x3d51748c3b306225U, 0x3d9fd8f200000000U, 0x3da55c033d04499cU,
  0xbd84499c3d466e6aU, 0xbe229a7abe6d03e2U, 0xbd0f4fbe3cb06225U, 0xbe75487bbde1fdbfU,
  0x3ddc7aaebe59b926U, 0xbd0f4fbebe4bf17bU, 0xbd1a55e0bde1fdbfU, 0xbdb5e536be229a7aU,
  0x3e255c03bd9a55e0U, 0xbbb06225bde1fdbfU, 0xbd3b68473cc66e6aU, 0x3cc66e6a3e306225U,
  0xbd8f4fbebd6780d1U, 0x3cf286f33d466e6aU, 0x3d1a55e0bd3b6847U, 0xbb3062253e64bf48U,
  0x3bb06225bc84499cU, 0xbe5c7aaebe7d8d15U, 0xbde780d13dd6f79dU, 0xbe84499cbdaadf14U,
  0x3d51748cbe9e782dU, 0x3e018813be51748cU, 0x3de1fdbfbd9a55e0U, 0xbdfd8d15bd5c7aaeU,
  0x3db6ffd8bd993573U, 0xbdc805c83b082f83U, 0x3dea11a93e6c3267U, 0x3c882f833e871f24U,
  0xbc2a3b64bde5d02dU, 0xbda1b86cbdc3c44cU, 0xbd193573bc2a3b64U, 0xbe54ca3d3e193573U,
  0xbe21b86cbdaa3b64U, 0x3c2a3b64bdd088c1U, 0x3d65d02dbdf6d61dU, 0x3b882f83be0a5041U,
  0x3e10b27bbda5f9e8U, 0xbdae7ce0bd6e5325U, 0x3db2be5cbe0e91bdU, 0xbe309d9ebe7073e3U,
  0xbd43c44cbe0a5041U, 0xbe2e7ce0be25f9e8U, 0x3dc3c44c3dd088c1U, 0xbdb2be5c3db6ffd8U,
  0xbc882f83be34df1aU, 0x3d21b86cbde5d02dU, 0xbe10b27bbe45e50aU, 0xbe060ec53e41a38eU,
  0xbe41a38e3d193573U, 0xbc882f833d993573U, 0x3b882f83bc082f83U, 0xbb882f83bd94f3f7U,
  0x3e67f0ebbdc3c44cU, 0xbdd90bb93df294a1U, 0x3db2be5cbe25f9e8U, 0xbd6e5325be309d9eU,
  0xbd7f5916bcee5325U, 0xbe10b27b3c2a3b64U, 0x3caa3b643d7f5916U, 0x3cdd4d353d83ee07U,
  0xbdf294a1be3f82d0U, 0xbd3b4154be618eb1U, 0xbd882f83bcee5325U, 0xbe0a50413df6d61dU,
  0xbe2a3b643c4c4744U, 0x3d32be5cbd32be5cU, 0x3e25f9e8bd9d76efU, 0xbd993573bd5d4d35U,
  0x3e1935733ccc4744U, 0xbdee5325bbcc4744U, 0x3d193573bc993573U, 0xbd83ee07bd10b27bU,
  0x3d5d4d35be2a3b64U, 0xbc993573bd90b27bU, 0x3e21b86c3d94f3f7U, 0x3d65d02dbd3b4154U,
  0x3c6e5325bdfb179aU, 0xbe5088c1bdd088c1U, 0xbdc805c8bd993573U, 0xbd5d4d353de18eb1U,
  0xbdf294a1bd76d61dU, 0x3d7f59163d32be5cU, 0x3df6d61dbe14f3f7U, 0xbe2c5c22bd7f5916U,
  0xbd3b4154be1b5631U, 0xbd4c47443d54ca3dU, 0x3d882f83bd54ca3dU, 0xbbcc4744bdbb4154U,
  0xbe4e6803bd993573U, 0xbd3b4154be5f6df3U, 0x3dbb41543d65d02dU, 0xbdb6ffd8be082f83U,
  0xbcdd4d35be14f3f7U, 0xbe14f3f73b882f83U, 0xbe34df1abd43c44cU, 0xbdae7ce03d32be5cU,
  0xbe060ec53cdd4d35U, 0x3dea11a9bc882f83U, 0x3dd088c1bdd4ca3dU, 0xbe12d339bd2a3b64U,
  0xbd7f5916bd5d4d35U, 0xbe01cd49be2a3b64U, 0xbda5f9e8bcee5325U, 0xbb082f83bd193573U,
  0x3c873c86bde164e0U, 0x3cf7eef63d3f95beU, 0xbb3450b3bd8cdf0cU, 0xbdb9f3393c6164e0U,
  0x3c6164e0be1552d4U, 0xbd4adac9bd561fd5U, 0xbe1dc69d3e236922U, 0xbe4267013d3450b3U,
  0x3d3450b3bd561fd5U, 0xbe0cdf0cbe3f95beU, 0xbe3cc47bbdcadac9U, 0xbe8a0dc93db450b3U,
  0xbcf7eef63c873c86U, 0x3dcadac93daeae2dU, 0xbe9dc69dbe534e92U, 0xbd4adac9bd1dc69dU,
  0x3ccadac9bddbc25aU, 0xbd290ba83dd07d4fU, 0xbe1dc69d00000000U, 0xbdcadac93bb450b3U,
  0x3d290ba83d819a01U, 0xbdb9f3393d3f95beU, 0xbe2bdcebbc873c86U, 0xbdfd917c3d073c86U,
  0xbc6164e03c6164e0U, 0xbe3f95bebe724c71U, 0xbe1824173c073c86U, 0xbe2097df3d290ba8U,
  0xbe0fb04fbde164e0U, 0x3de70765bdcadac9U, 0xbe846b43be426701U, 0x3d1dc69dbbb450b3U,
  0xbbb450b3bcf7eef6U, 0xbcb450b3bd873c86U, 0xbcb450b33d928191U, 0x3b3450b3bd290ba8U,
  0xbc9dc69dbd9dc69dU, 0xbdc538443bb450b3U, 0xbd4adac93ce164e0U, 0x3d1dc69dU,
  0x3e2097dfbd4adac9U, 0xbe453844be819a01U, 0xbe9552d43d928191U, 0xbe2097dfbd928191U,
  0xbdb9f3393da90ba8U, 0x3e39f339bb3450b3U, 0xbe982417bd561fd5U, 0xbdfd917cbd561fd5U,
  0x3ce164e0bd290ba8U, 0xbc9dc69dbce164e0U, 0xbdb450b33d6ca9ebU, 0xbd4adac93c873c86U,
  0x3d9dc69dbdd07d4fU, 0xbd982417bddbc25aU, 0xbd3f95bebd3f95beU, 0xbe2eae2d00000000U,
  0xbd561fd53bb450b3U, 0xbe6ca9ebbe39f339U, 0xbeb2e8123e019a01U, 0xbd873c86bdeca9ebU,
  0xbe5e939dbdc53844U, 0x3d873c86bc6164e0U, 0xbe8a0dc9be873c86U, 0x3d3450b3bd982417U,
  0xbc6164e0bcb450b3U, 0xbd819a01be1dc69dU, 0xbdcadac9bd073c86U, 0x3dc53844bdb9f339U,
  0xbbb450b3bd290ba8U, 0x3d4adac93d9dc69dU, 0xbd561fd53c873c86U, 0xbd290ba8bccadac9U,
  0x3c6164e0bd6ca9ebU, 0x3c3450b3be3450b3U, 0xbeaa74493e236922U, 0xbcf7eef6bdf24c71U,
  0xbd77eef6bdd07d4fU, 0x3e4267013d8cdf0cU, 0xbe453844bccadac9U, 0x3da90ba83daeae2dU,
  0xbdaca5a5be0882f9U, 0x3da09a16bdbcb50dU, 0xbd847f1fbdb4ad59U, 0x3e0a84e63e3cb50dU,
  0x3d0882f93e2ca5a5U, 0xbd28a1cb3d8882f9U, 0x3daca5a5bdccc476U, 0x3d78eed63c807b45U,
  0xbdb4ad59bdaca5a5U, 0xbc807b453e54cc2aU, 0xbc908aae3da09a16U, 0x3d70e721bd9c963cU,
  0x3dc0b8e83d68df6dU, 0x3d807b45bc209a16U, 0xbd40b8e83de4db93U, 0xbd58d0043d38b133U,
  0xbe007b45bce0d7b9U, 0xbc007b45bdd4cc2aU, 0xbdaca5a5U, 0x3d9c963cbca09a16U,
  0x3b007b453e4cc476U, 0xbd9c963c3e007b45U, 0x3dc4bcc2bd70e721U, 0xbd78eed63d40b8e8U,
  0xbe70e7213de0d7b9U, 0x3cc0b8e83e30a97fU, 0xbdf4eafcbc908aaeU, 0xbca09a16bcd0c850U,
  0x3e28a1cb3e148e88U, 0xbbc0b8e83d28a1cbU, 0x3d948e883d28a1cbU, 0x3cc0b8e8bd78eed6U,
  0xbe56ce17bce0d7b9U, 0x3dc4bcc23d28a1cbU, 0x3cf0e7213d108aaeU, 0x3ce0d7b9be269fddU,
  0x3d70e7213e007b45U, 0xbc60d7b93ce0d7b9U, 0x3d38b133be1c963cU, 0xbde0d7b9bcd0c850U,
  0xbe44bcc2bd209a16U, 0xbd0882f93e189262U, 0x3ca09a16bd78eed6U, 0xbb007b45bdb4ad59U,
  0x3da49df03dd0c850U, 0x3c209a163e047f1fU, 0x3e06810c3d0882f9U, 0xbd8c86d33e1c963cU,
  0xbe7cf2b0bdb8b133U, 0xbd807b45bdb4ad59U, 0xbe28a1cbbe189262U, 0x3ddcd3dfbe3eb6faU,
  0x3d989262bd30a97fU, 0xbddcd3dfbd58d004U, 0x3db4ad59bdece347U, 0xbd60d7b9bdc8c09cU,
  0xbe44bcc2bd70e721U, 0x3cc0b8e83e047f1fU, 0xbde0d7b9bd38b133U, 0xbd209a16bd0882f9U,
  0xbce0d7b93db0a97fU, 0x3c60d7b9bc908aaeU, 0xbc807b45bddcd3dfU, 0x3bc0b8e83d30a97fU,
  0xbe7ef49d3d28a1cbU, 0x3d108aae3d209a16U, 0xbc908aae3c40b8e8U, 0x3dc8c09cbe46beafU,
  0xbe2ca5a53d807b45U, 0xbdd0c8503d68df6dU, 0xbbc0b8e8bb807b45U, 0xbe108aaebe2ea792U,
  0xbe36af46bb807b45U, 0xbd209a163da49df0U, 0xbe148e88bc60d7b9U, 0xbcf0e721bd209a16U,
  0xbe3ab3203e2ca5a5U, 0xbe3cb50dbd948e88U, 0xbda8a1cbbe229c03U, 0xbd9892623bc0b8e8U,
  0xbde687e1bdd7d0e8U, 0xbc895665bcd7d0e8U, 0x3e0e3e0dbe37ef23U, 0x3d3093a7bd3093a7U,
  0x3e10b1e23dff0e2aU, 0xbe3a62f7be0bca39U, 0xbc443248bd7f0e2aU, 0x3d1325b6be2babffU,
  0xbdb57b4fbd57d0e8U, 0x3d753ed93db093a7U, 0xbe1325b6be01fae9U, 0x3d1325b63d1cf506U,
  0xbe7f0e2abde1a039U, 0xbde687e13db57b4fU, 0x3e1f68da3db093a7U, 0xbe50756c3d846ebdU,
  0xbd980d5ebe180d5eU, 0xbd3093a73ceb6f89U, 0x3e3093a7bd7f0e2aU, 0xbd8e3e0d3c6b6f89U,
  0xbc6b6f893dababffU, 0xbd895665be1325b6U, 0x3ddcb890bcd7d0e8U, 0x3d1325b6bceb6f89U,
  0xbe33077bbd095665U, 0x3d7f0e2abd443248U, 0xbe15998abd980d5eU, 0xbd9cf506bd3a62f7U,
  0xbe5a44bcbd443248U, 0xbde1a039bd1325b6U, 0x3df53ed93e0e3e0dU, 0xbe68fbb53d1325b6U,
  0xbe1cf506bd753ed9U, 0xbe1a8132bdeb6f89U, 0x3e3a62f7be15998aU, 0x3d980d5ebc1cf506U,
  0xbd7f0e2abd095665U, 0x3db57b4fbd3093a7U, 0x3de1a0393dd2e940U, 0x3c8956653b9cf506U,
  0xbb9cf506bb9cf506U, 0x3cff0e2a3d4e0198U, 0xbdd7d0e83b1cf506U, 0xbd980d5ebd846ebdU,
  0xbe7c9a563d7f0e2aU, 0xbda1dcaebda1dcaeU, 0x3d980d5e3cc43248U, 0xbe881c7b3dba62f7U,
  0xbd895665bcff0e2aU, 0x3d57d0e83deb6f89U, 0x3d57d0e8be15998aU, 0xbde687e13c6b6f89U,
  0x3c6b6f893ceb6f89U, 0x3d4e01983ceb6f89U, 0x3e10b1e23df05731U, 0x3d1cf506bddcb890U,
  0xbe1325b6be2babffU, 0xbd1325b63cd7d0e8U, 0x3c8956653e180d5eU, 0x3dd7d0e83beb6f89U,
  0xbe9bbb1cbceb6f89U, 0xbdf53ed9bd1325b6U, 0xbd26c4563ceb6f89U, 0xbe9a81323e4b8dc4U,
  0x3dababffbcc43248U, 0x3d3093a7bd7f0e2aU, 0x3dbf4a9fbbeb6f89U, 0x3d8e3e0dbd7f0e2aU,
  0xbd4e01983d846ebdU, 0xbdd2e9403d846ebdU, 0x3e29382abdd2e940U, 0x3ddcb89000000000U,
  0xbde1a039be0bca39U, 0xbd753ed9bd895665U, 0xbe0bca393cb093a7U, 0x3d3a62f73d9325b6U,
  0xbe06e291bda6c456U, 0x3beb6f89bdb093a7U, 0x3d61a039bb9cf506U, 0xbe357b4f3d3093a7U,
  0x3d11a21bbe17b387U, 0x3d29e7ca3d360aa1U, 0xbe8887f93c11a21bU, 0xbd422d793da9e7caU,
  0xbd9dc4f2be057f43U, 0xbd669600bcda7328U, 0xbd5a73283cc22d79U, 0x3d5a7328be699eb6U,
  0x3d97b387be29e7caU, 0xbd1dc4f2bde08494U, 0x3dfedbafbd29e7caU, 0x3d9dc4f2bde08494U,
  0xbde08494bdb60aa1U, 0xbe3f24c3be857f43U, 0x3b422d793dce5051U, 0xbe0887f9be0e9965U,
  0x3c422d79bda9e7caU, 0x3cc22d793d97b387U, 0xbe5a73283cc22d79U, 0xbe20cda8bd4e5051U,
  0x3d97b387be8b90afU, 0x3d97b387bd057f43U, 0xbe5461bcbd422d79U, 0x3dc22d79be29e7caU,
  0x3e1dc4f2bdce5051U, 0xbd857f43be901dc0U, 0x3d97b3873cda7328U, 0x3ca9e7cabd72b8d7U,
  0xbde08494bcc22d79U, 0xbe5d7bdebeb60aa1U, 0x3d91a21bbcf2b8d7U, 0xbe422d79bd9dc4f2U,
  0x3dbc1c0dbd4e5051U, 0xbc11a21b3e0b90afU, 0xbeb301ec3d8b90afU, 0xbc11a21bbc422d79U,
  0xbd4e5051bdf8ca43U, 0x3cf2b8d7bd9dc4f2U, 0xbe3913573e17b387U, 0xbd7edbafbd360aa1U,
  0xbd360aa1be26df14U, 0x3ca9e7cabe9f494dU, 0x3e669600bdb60aa1U, 0x3c91a21b3d8b90afU,
  0xbe02768dbd8b90afU, 0xbcc22d79be9f494dU, 0x3d8b90af3d8b90afU, 0xbc422d793ca9e7caU,
  0xbcda7328bc422d79U, 0x3c422d793d422d79U, 0xbe91a21b3d8b90afU, 0xbcda73283de69600U,
  0xbe26df14bd97b387U, 0x3d5a7328bcc22d79U, 0xbc72b8d73dd461bcU, 0x3de084943d422d79U,
  0xbd857f43bd11a21bU, 0xbcc22d79be608494U, 0x3e4e50513dfedbafU, 0x3d1dc4f23daff936U,
  0x3d5a73283b422d79U, 0xbe29e7cabe8b90afU, 0x3d72b8d73d669600U, 0xbdeca76bbc422d79U,
  0xbcc22d793d422d79U, 0x3c11a21b3dce5051U, 0xbe20cda83b422d79U, 0xbdf2b8d73e2ff936U,
  0x3d1dc4f2bdf2b8d7U, 0xbc422d793d669600U, 0x3bc22d793c72b8d7U, 0x3e0b90afbdc83ee5U,
  0x3daff936bdb60aa1U, 0xbd97b387be75c18dU, 0x3c422d79bde69600U, 0xbcda7328bd29e7caU,
  0x3c72b8d7bd422d79U, 0xbe23d65ebec0a91eU, 0x3d97b3873d8b90afU, 0xbcda7328bd857f43U,
  0xbcc5ac683e0cd7a3U, 0x3e2cf6db3dca9d84U, 0x3d007cddbcd970d8U, 0xbd6d35493e209c14U,
  0x3d45ac68bd807cddU, 0x3cc5ac68be96b9dcU, 0x3de8442dbe5e61f4U, 0x3e11c8c03c6d3549U,
  0xbdf71781bd2805beU, 0x3e209c143d2805beU, 0xbd94414e3d771781U, 0x3cb1e7f7bdf22665U,
  0x3c1e2386bcc5ac68U, 0x3df717813d007cddU, 0x3cb1e7f7bdca9d84U, 0xbe209c14bc1e2386U,
  0xbc6d3549bcc5ac68U, 0x3e258d30be056df9U, 0xbc45ac683e2a7e4cU, 0xbced35493e1baaf8U,
  0x3dfc089e3df71781U, 0xbe16b9dcbe60da83U, 0xbd8f5031be0cd7a3U, 0xbd007cddbcb1e7f7U,
  0xbdd47fbcbced3549U, 0x3d94414ebd0a5f15U, 0xbb1e2386U, 0xbd3bca2fbbed3549U,
  0x3d77178100000000U, 0xbced35493e02f56bU, 0xbe19326a3d771781U, 0x3cd970d83bed3549U,
  0xbe31e7f7bdd47fbcU, 0x3d0a5f15bda805beU, 0xbd8a5f153dde61f4U, 0x3ced35493dd970d8U,
  0x3d2805be3cb1e7f7U, 0xbe60da83be68442dU, 0x3ced3549bdb6d913U, 0x3c9e23863cd970d8U,
  0xbd8a5f153cc5ac68U, 0x3e3460853d3bca2fU, 0x3c8a5f15be2805beU, 0xbb9e2386bdd970d8U,
  0x3d9e23863db1e7f7U, 0xbb9e2386bd1e2386U, 0x3d635311be0cd7a3U, 0xbbed3549bd0a5f15U,
  0xbd856df9bdb1e7f7U, 0xbd635311be4a9d84U, 0x3da314a23dc5ac68U, 0xbd8f50313d007cddU,
  0x3dacf6db3d45ac68U, 0xbd771781be31e7f7U, 0xbdbbca2fbe209c14U, 0xbe3e42bdbd3bca2fU,
  0x3d0a5f15bda314a2U, 0x3de35311bd807cddU, 0xbd856df9be346085U, 0x3c45ac683d635311U,
  0x3d94414e3c8a5f15U, 0xbc1e23863d635311U, 0xbe07e687bd856df9U, 0x3ded3549be2314a2U,
  0xbe3460853cc5ac68U, 0xbd31e7f7be60da83U, 0x3e7c089ebc45ac68U, 0xbdacf6db3b9e2386U,
  0x3e0cd7a33d007cddU, 0xbe930507bb1e2386U, 0xbe07e687be258d30U, 0xbd45ac68bdbbca2fU,
  0x3d8f5031be16b9dcU, 0x3dc5ac68bd856df9U, 0x3d45ac68be19326aU, 0xbe5e61f43dde61f4U,
  0x3df226653e0a5f15U, 0xbe9ce73f00000000U, 0xbde35311bdfc089eU, 0x3e4824f6bcb1e7f7U,
  0xbe08ac373e3fde12U, 0xbd3d3d383d836a84U, 0xbcd244063e0dedeaU, 0xbcfc51a03ca8366bU,
  0xbe036a84be187151U, 0xbd524406bd524406U, 0xbd9871513ce74ad3U, 0xbe9c62973ba8366bU,
  0xbd836a84bdec8c86U, 0xbe91df313ca8366bU, 0x3d88ac37bdec8c86U, 0x3bfc51a03d932f9eU,
  0xbba8366b3e00c9aaU, 0x3e2595913e3018f8U, 0x3cbd3d383ce74ad3U, 0xbc524406be860b5dU,
  0xbca8366b3dfc51a0U, 0xbdc7c09fbd8dedeaU, 0xbe15d0773e08ac37U, 0x3e0b4d113ba8366bU,
  0xbe54e4dfbe15d077U, 0x3dec8c863d1db304U, 0xbd71ce3abd32b9d2U, 0xbe84baf0bd9db304U,
  0x3ca8366bbdec8c86U, 0xbdd785b93db7fb85U, 0xbd3d3d38U, 0xbd5cc76cbda8366bU,
  0x3c932f9e3bfc51a0U, 0x3e22f4b8bd28366bU, 0x3dc27eec3c932f9eU, 0xbd674ad3be5a2693U,
  0xbb28366b3e3018f8U, 0xbcfc51a03c28366bU, 0xbe1871513dfc51a0U, 0x3dc27eec3e2ad745U,
  0xbe64a9f9bd47c09fU, 0x3e08ac37bc7c51a0U, 0xbe54e4dfbe32b9d2U, 0xbd3d3d383d987151U,
  0xbe0b4d113d836a84U, 0xbd8dedeabc28366bU, 0xbde74ad300000000U, 0x3e22f4b8bc7c51a0U,
  0xbd836a84bc932f9eU, 0xbc7c51a0bdf70fedU, 0x3dad781e3dfc51a0U, 0x3e060b5dbe64a9f9U,
  0x3dbd3d383db2b9d2U, 0x3ddcc76c3d47c09fU, 0xbe2ad745bd5cc76cU, 0x3d5cc76c3c524406U,
  0xbe2ad745bdfc51a0U, 0x3e108ec43bfc51a0U, 0xbde74ad3be32b9d2U, 0xbe37fb853d8dedeaU,
  0x3cd24406be060b5dU, 0xbe108ec43db7fb85U, 0xbd524406bce74ad3U, 0xbdc7c09fbd3d3d38U,
  0xbcfc51a03d08ac37U, 0x3c28366bbdf70fedU, 0x3d7c51a03dcd0252U, 0xbd932f9ebdb7fb85U,
  0x3da2f4b83dd785b9U, 0xbd674ad33e2ad745U, 0xbea6e5fe3ce74ad3U, 0x3e132f9e3d47c09fU,
  0xbea6e5febc524406U, 0x3e08ac373e108ec4U, 0xbd88ac37bdbd3d38U, 0xbe4d02523b28366bU,
  0x3cbd3d38be08ac37U, 0xbd28366bbce74ad3U, 0x3d836a84bd836a84U, 0x3d32b9d23cd24406U,
  0x3db7fb85bda2f4b8U, 0x3d08ac37bdb2b9d2U, 0x3d836a843dc27eecU, 0x3c932f9eU,
  0xbdb7ecbfbd09f18fU, 0xbe5a6923bdfce586U, 0x3bf53ba9bdd69434U, 0xbded91cc3bf53ba9U,
  0x3e0247b2bdceea57U, 0xbdf53ba9bdfce586U, 0x3cb7ecbfbd474079U, 0x3c99454abd37ecbfU,
  0xbcf53ba9be3bc1adU, 0xbdc740793d8247b2U, 0x3d569434be20ef27U, 0x3e3417d03c753ba9U,
  0xbdde3e11bd09f18fU, 0x3cf53ba93dc74079U, 0x3d65e7eebd753ba9U, 0xbdc740793cb7ecbfU,
  0xbc753ba9bd99454aU, 0xbe89f18fbdde3e11U, 0x3d09f18fbd09f18fU, 0x3d09f18fbe0dc67eU,
  0x3e0247b2bcd69434U, 0xbdc740793c753ba9U, 0x3cb7ecbfbd99454aU, 0xbdf53ba9U,
  0xbcf53ba9U, 0x3c753ba93d19454aU, 0x3de5e7eebe8dc67eU, 0x3dbf969c3c37ecbfU,
  0xbd289904bdbf969cU, 0xbdb042e13d37ecbfU, 0xbdc74079bd65e7eeU, 0x3dc740793db042e1U,
  0x3d919b6cbe0247b2U, 0xbee5e7ee3cb7ecbfU, 0x3cf53ba9bcf53ba9U, 0xbdde3e11bded91ccU,
  0x3c99454abd474079U, 0xbded91ccbe0dc67eU, 0xbd89f18fbcf53ba9U, 0x3e3bc1adbe24c416U,
  0xbc99454abd19454aU, 0xbb753ba9bdc74079U, 0x3dceea57bdf53ba9U, 0x3e474079bda89904U,
  0xbe436b8bbd753ba9U, 0x3bf53ba93dfce586U, 0xbc753ba9bcd69434U, 0x3d753ba93d753ba9U,
  0xbd569434bd65e7eeU, 0xbef35132bd89f18fU, 0x3d09f18fbd8247b2U, 0xbdbf969cbe0dc67eU,
  0x3e3417d0bcd69434U, 0xbe0dc67ebe15705bU, 0xbe0247b2bd99454aU, 0x3e2c6df3bdc74079U,
  0x3d37ecbfbd19454aU, 0xbe0dc67e3d8247b2U, 0x3e3f969cbe9b2fc1U, 0x3e4eea573d89f18fU,
  0xbd919b6cbd99454aU, 0xbcf53ba93e24c416U, 0xbc37ecbfbe0247b2U, 0x3dd69434bbf53ba9U,
  0xbcd69434bcb7ecbfU, 0xbeac6df33d37ecbfU, 0xbde5e7eeU, 0x3d65e7eebe474079U,
  0x3e436b8b3d919b6cU, 0xbdbf969cbdb7ecbfU, 0x3d37ecbf3dbf969cU, 0x3dc74079bded91ccU,
  0xbd37ecbfbe474079U, 0xbcb7ecbfbc99454aU, 0x3e8fb0f5be09f18fU, 0x3b753ba93db7ecbfU,
  0xbe09f18f3c99454aU, 0xbdb7ecbf3d569434U, 0x3cf53ba93cf53ba9U, 0xbcd69434bd19454aU,
  0xbd838e77bb07ccdeU, 0xbceda6843d762352U, 0x3d87ccde3de529b7U, 0x3c07ccde3c87ccdeU,
  0x3d9049acbdc774e6U, 0x3d1049acbda581afU, 0x3dcff1b43d323ce3U, 0xbd2143483cbab9b1U,
  0x3dadfe7c3ca9c016U, 0xbe23627bbd9d04e1U, 0x3d9d04e1bbcbb34dU, 0xbe4ff1b43dbab9b1U,
  0x3c4bb34d3cdcace9U, 0x3d5cace9bd3ab9b1U, 0xbe038e773d323ce3U, 0x3dadfe7cbd9049acU,
  0x3d9049acbcfea020U, 0xbdd86e823c6da684U, 0xbd5cace9bd29c016U, 0x3b07ccde3d29c016U,
  0x3d29c0163cdcace9U, 0xbdfa61b9bc07ccdeU, 0x3d4bb34dbddcace9U, 0xbdeda6843d18c67aU,
  0x3d29c016be16a746U, 0xbde529b73bcbb34dU, 0x3d6529b7bd8c0b45U, 0x3d214348bbcbb34dU,
  0x3d762352be345c17U, 0xbd5cace93ddcace9U, 0xbc98c67abe18c67aU, 0x3ceda684bd6da684U,
  0x3d07ccdebd9049acU, 0xbd43367fbd6529b7U, 0xbdf1e4eb3d9d04e1U, 0xbda14348bcfea020U,
  0x3d8c0b45bca9c016U, 0xbd5cace9bcfea020U, 0xbca9c016bda581afU, 0xbe214348bc87ccdeU,
  0x3d323ce3bceda684U, 0xbe6fc5b83de529b7U, 0xbe2dfe7c3e016f44U, 0x3d07ccde3d54301bU,
  0xbccbb34dbd4bb34dU, 0x3e367b4a3e6fc5b8U, 0xbe2581afbe5a8db5U, 0xbe1268df3cfea020U,
  0x3e0c0b453df1e4ebU, 0x3dd86e82bd87ccdeU, 0xbceda6843dbab9b1U, 0x3de529b7be07ccdeU,
  0xbb87ccde3df62352U, 0x3e389a7ebd7ea020U, 0x3d323ce3be0e2a78U, 0x3d7623523e05adabU,
  0xbde9681e3d54301bU, 0xbe345c173dbab9b1U, 0xbe86bd443c4bb34dU, 0xbdc3367fbd98c67aU,
  0xbe2581afbd43367fU, 0x3e586e823e148813U, 0xbe148813be41174cU, 0xbe71e4ebbda9c016U,
  0xbc4bb34d3da14348U, 0xbda581af3d323ce3U, 0xbe4bb34d3d762352U, 0x3c98c67a3cbab9b1U,
  0x3cbab9b1bc29c016U, 0xbc98c67a3c87ccdeU, 0x3dadfe7cbde529b7U, 0xbda9c0163b87ccdeU,
  0x3d7ea020bd762352U, 0xbdcbb34dbdcff1b4U, 0xbe85adabbbcbb34dU, 0xbbcbb34d3b87ccdeU,
  0xbd6529b7be148813U, 0x3e6748eabd18c67aU, 0xbe1049acbdf1e4ebU, 0xbd1049acbd98c67aU,
  0xbd6641f63dc55d1cU, 0x3da47842bd6641f6U, 0xbdfc2fdcbe00d5abU, 0xbd8e8a5bbd6641f6U,
  0xbe16c392bdf138e9U, 0x3dd5cf893d3a6628U, 0x3d9405d53baf6f35U, 0x3e039368U,
  0xbdf138e9bd455d1cU, 0xbe50540fbda47842U, 0xbdd5cf893e114818U, 0x3d8e8a5bbcaf6f35U,
  0x3d8e8a5bbde0c67cU, 0xbe73f6a63e114818U, 0x3cf138e9be2f6f35U, 0xbddb4b02bc839368U,
  0xbd455d1cbc039368U, 0xbd19814ebcf138e9U, 0xbd99814ebdaf6f35U, 0xbc5b4b02be322cf2U,
  0x3cc55d1c3d5b4b02U, 0x3c839368bdf6b463U, 0x3cc55d1cbc839368U, 0xbd7c2fdc00000000U,
  0xbc0393683d99814eU, 0xbe322cf23dc55d1cU, 0x3d99814e00000000U, 0xbc039368bd3a6628U,
  0x3d9efcc8be2cb178U, 0xbe9148183caf6f35U, 0xbcaf6f35be2f6f35U, 0xbe429f5fbd8e8a5bU,
  0xbdf138e9be114818U, 0x3d0e8a5b3df6b463U, 0x3baf6f35bdf138e9U, 0xbcdb4b02be6641f6U,
  0xbe114818bdb4eaafU, 0xbdcad895bd7138e9U, 0x3e19814ebd6641f6U, 0xbe247842bd7c2fdcU,
  0x3dd5cf89bd2f6f35U, 0xbe322cf2bdaf6f35U, 0x3e00d5ab3d8e8a5bU, 0x3c2f6f35bcdb4b02U,
  0xbc2f6f353d039368U, 0xbd99814e3e588d45U, 0xbe2735ffbdf138e9U, 0xbe3fe1a2bdf138e9U,
  0xbdbfe1a2bd3a6628U, 0x3dd5cf893e0e8a5bU, 0xbe37a86bbddb4b02U, 0xbd50540fbe3a6628U,
  0xbddb4b02be1efcc8U, 0xbe0bcc9ebe039368U, 0x3e1efcc83da47842U, 0xbb2f6f353e21ba85U,
  0xbe2735ff3c039368U, 0xbe0e8a5bbc839368U, 0xbc5b4b02bdaf6f35U, 0xbc2f6f35bc039368U,
  0x3b2f6f35bcaf6f35U, 0xbdebbd6f3e090ee1U, 0xbe0e8a5bbdbfe1a2U, 0xbe9efcc8bcc55d1cU,
  0xbdcad8953cc55d1cU, 0x3de641f6bda9f3bbU, 0xbe2735ffbd0e8a5bU, 0xbdcad895bdba6628U,
  0xbe1405d5bdbfe1a2U, 0x3d0e8a5bbde641f6U, 0x3dcad8953e090ee1U, 0xbcdb4b02bdd5cf89U,
  0xbd2f6f353d9405d5U, 0xbe3fe1a2bd7138e9U, 0x3d2f6f35bd6641f6U, 0x3cf138e9bda9f3bbU,
  0x3e1405d5bde641f6U, 0xbe0651253e1c3f0bU, 0xbd7c2fdcbeae1057U, 0xbeab529a3d890ee1U,
  0xbd8059d6be53c76eU, 0xbd6f96a13d1a0568U, 0x3deb4f5e3dab2273U, 0x3e51a3cd3de7081bU,
  0xbd9176e2be5a3253U, 0x3e06c4bb3e06c4bbU, 0x3d2b22733d8059d6U, 0xbe87d68b3e1e4caaU,
  0xbe2b22733dc086c1U, 0x3d67081b3d9a0568U, 0xbdaf69b63d95be25U, 0xbbcd5c8a3daf69b6U,
  0xbd2b22733deb4f5eU, 0x3b88e85c3c88e85cU, 0xbccd5c8abd88e85cU, 0x3e1e4caabc4d5c8aU,
  0xbc4d5c8a3d8d2f9fU, 0xbcef96a13dbc3f7eU, 0xbd67081bbdab2273U, 0x3e06c4bbbe1176e2U,
  0x3d2b2273be4086c1U, 0x3d4d5c8a3d8059d6U, 0x3d84a1193d9a0568U, 0xbe2293ed3e06c4bbU,
  0xbdaf69b63dab2273U, 0xbbcd5c8a3df3dde4U, 0xbcde79963d4d5c8aU, 0xbe06c4bb3c9a0568U,
  0xbdde79963d88e85cU, 0x3dcd5c8a3dc91547U, 0x3daf69b6bdeb4f5eU, 0x3c4d5c8a3c6f96a1U,
  0xbc08e85cbc6f96a1U, 0xbe2b22733d8d2f9fU, 0xbe46f1a63d2b2273U, 0x3e3e6320be15be25U,
  0xbe1e4caabd5e7996U, 0xbd1a0568bccd5c8aU, 0x3ccd5c8a3db7f83cU, 0xbc2b2273bd44ce04U,
  0xbe20704c3d5e7996U, 0x3e1176e2bcde7996U, 0xbdfc6c6abdc4ce04U, 0xbdaf69b600000000U,
  0xbe827d783d33b0f9U, 0xbda6db303dab2273U, 0xbcef96a1bd88e85cU, 0xbe37f83c3e08e85cU,
  0x3e06c4bb3dc4ce04U, 0xbb88e85cbd9176e2U, 0xbe1176e2bd44ce04U, 0x3df82527be62c0d8U,
  0xbd84a119be42aa63U, 0x3cbc3f7e3dd1a3cdU, 0x3d2b2273bcab2273U, 0x3c08e85cbb88e85cU,
  0xbe5c55f4bd9a0568U, 0x3b88e85c3d2b2273U, 0xbb08e85c3d33b0f9U, 0xbd44ce04bd782527U,
  0xbe7e900bbcef96a1U, 0xbda6db303dc4ce04U, 0x3d55eb10be1c2909U, 0xbdaf69b6bd3c3f7eU,
  0xbcab22733d8d2f9fU, 0xbd1a0568bc6f96a1U, 0xbdb7f83cbdda3253U, 0x3e64e47abe8059d6U,
  0xbda6db30be37f83cU, 0x3d1a0568bc2b2273U, 0xbdab2273bcab2273U, 0xbe1c2909bd5e7996U,
  0xbe838f48bdc4ce04U, 0x3e1c290900000000U, 0xbc6f96a1bdeb4f5eU, 0xbd67081bbd9e4caaU,
  0xbe3a1bddbd8059d6U, 0x3d33b0f9be2f69b6U, 0x3e0059d6bd33b0f9U, 0xbe4d5c8a3d782527U,
  0xbd3ebb6abe066122U, 0xbe4766d8bda90ed8U, 0xbd6169213c2d648fU, 0x3dffc120bd58bdb3U,
  0xbc72bffcbdfb6b69U, 0xbdbebb6a3e40e646U, 0xbd1362473d136247U, 0xbdee6a453de5bed7U,
  0x3d6169213d58bdb3U, 0x3d7b6b693dc766d8U, 0xbda4b922bdbebb6aU, 0x3d3ebb6a3c8ab6d9U,
  0xbd1c0db43d7b6b69U, 0xbd9c0db4bd8ab6d9U, 0x3e866122bc501246U, 0xbdcbbc8f3cad648fU,
  0x3b8ab6d93d2d648fU, 0xbd1c0db43c501246U, 0xbe20636bbcd01246U, 0x3db60ffdbc72bffcU,
  0xbde16921bdd8bdb3U, 0x3d5012463e31ba46U, 0xbc8ab6d9bc72bffcU, 0xbd6a148e3d1c0db4U,
  0x3db1ba46U, 0x3e1362473ce16921U, 0xbd8f0c90be24b922U, 0xbd360ffd3d866122U,
  0x3ce16921bd501246U, 0xbd1c0db43c72bffcU, 0x3e383ad83d9c0db4U, 0xbe228e463dbebb6aU,
  0x3db1ba463d58bdb3U, 0xbe65bed73d820b6bU, 0xbd0ab6d9bc9c0db4U, 0x3dad648fbdbebb6aU,
  0xbdd467fcbdd01246U, 0xbd820b6b3c8ab6d9U, 0xbe0661223d8f0c90U, 0xbd616921U,
  0xbe11376b3e11376bU, 0x3d3ebb6a3d97b7fdU, 0x3dc31121bd136247U, 0x3d24b922bc9c0db4U,
  0x3d6a148ebd97b7fdU, 0xbda90ed8be431121U, 0x3e7b6b693ce16921U, 0xbe088bfe3dd01246U,
  0xbd8ab6d9bdbebb6aU, 0xbdc766d8bd8f0c90U, 0xbcad648f3d820b6bU, 0x3e89a16b3ce16921U,
  0xbe0f0c90be2d648fU, 0xbb8ab6d93e228e46U, 0x3d8ab6d9bd360ffdU, 0x3cf2bffcbd501246U,
  0xbd5012463dad648fU, 0x3dd467fc3e31ba46U, 0xbbd01246be043647U, 0x3d8ab6d93cd01246U,
  0xbd8ab6d93dd01246U, 0x3c0ab6d9be2f8f6bU, 0x3e7b6b693d58bdb3U, 0xbdf2bffcbce16921U,
  0xbdbebb6a3e043647U, 0x3cad648fbdee6a45U, 0xbd3ebb6abdea148eU, 0x3e6e6a453d1c0db4U,
  0xbd136247be19e2d9U, 0xbd0ab6d93d020b6bU, 0xbdee6a45bd936247U, 0x3c2d648f3dad648fU,
  0xbe1c0db43d866122U, 0x3e17b7fd3e0ab6d9U, 0x3d72bffcbd2d648fU, 0xbd4766d83db60ffdU,
  0x3c9c0db43d9c0db4U, 0x3c5012463cbebb6aU, 0x3dee6a453cf2bffcU, 0xbe020b6bbb0ab6d9U,
  0xbc04b335bde4e856U, 0x3df22d75be065bd9U, 0x3dcdaf603c6edc2dU, 0x3dd7a3373dde45c6U,
  0xbe189ae43c04b335U, 0xbc1f3d733ce1970eU, 0xbd9bec2cbe317c7eU, 0xbc9f3d73bdd100a7U,
  0xbdc06a413e0161eeU, 0xbe16f240bb5451efU, 0xbdfc214cbe381f0dU, 0xbd84b335bc91f854U,
  0x3e52a94b3d7c214cU, 0x3da28ebbbcc70cd0U, 0x3d2c8292bcfc214cU, 0x3d470cd0bd470cd0U,
  0xbda5e003bd95499cU, 0x3d5451efbe34cdc6U, 0x3d2c82923e065bd9U, 0x3c6edc2d3deb8ae5U,
  0x3c91f8543d9bec2cU, 0x3d25e003be0ea70dU, 0xbdff7294bcc70cd0U, 0x3c1f3d733d2c8292U,
  0xbda5e0033e4c06bcU, 0xbd5451efbd2c8292U, 0xbe0161eebe13a0f8U, 0xbe15499cbd406a41U,
  0x3dd451ef3d5451efU, 0xbce1970ebb5451efU, 0x3cac82923cd451efU, 0x3e0161eebde4e856U,
  0xbdc06a41bd91f854U, 0xbe08047dbd470cd0U, 0x3e0cfe693e20e617U, 0xbce1970e3e0161eeU,
  0xbe08047dbd989ae4U, 0x3b9f3d73be1a4388U, 0xbd8b55c5be0161eeU, 0xbe0ea70dbdd451efU,
  0xbe381f0d3df57ebcU, 0x3d7c214c3dbd18f9U, 0x3b9f3d73be367669U, 0xbe2788a7be20e617U,
  0x3d88047d3d91f854U, 0xbcd451ef3e2e2b36U, 0x3db9c7b1bd61970eU, 0x3dde45c63b5451efU,
  0x3dc3bb883d5451efU, 0xbe2e2b36bdd7a337U, 0x3ce1970e3cac8292U, 0xbd5af47e3d68399dU,
  0xbdc70cd03dac8292U, 0xbdeedc2dbdd451efU, 0xbd61970ebdc70cd0U, 0x3ceedc2dbd91f854U,
  0xbce1970ebcb9c7b1U, 0xbcc70cd0bd0b55c5U, 0xbe0ea70dbcb9c7b1U, 0xbe2e2b36be1bec2cU,
  0x3e0cfe693cd451efU, 0xbd25e0033cac8292U, 0x3e406a413dde45c6U, 0x3dca5e18bd989ae4U,
  0x3dac82923b9f3d73U, 0xbe2fd3dabd8161eeU, 0x3ad451ef3dca5e18U, 0xbd1f3d733dcdaf60U,
  0xbd25e003bd757ebcU, 0x3dd7a337bdf57ebcU, 0xbda9314a3d39c7b1U, 0x3cac8292bdcdaf60U,
  0xbe16f2403dc06a41U, 0x3ceedc2d3de8399dU, 0x3cb9c7b1be367669U, 0xbd8b55c5bb9f3d73U,
  0x3e2788a73deedc2dU, 0xbdf57ebc3de8399dU, 0x3d406a41bcac8292U, 0x3d84b335bd406a41U,
  0x3df8aea9bd0e1aaaU, 0xbdffc9983d46f220U, 0x3df8aea93d7193baU, 0xbe3c49babe18c310U,
  0x3cffc998bdbfd732U, 0x3d86ffbbbdb1a154U, 0xbc8e1aaabe4e0d0fU, 0xbd2a8665be18c310U,
  0xbce35ddcbdf8aea9U, 0xbe38bc43U, 0x3e66eb53be1fddffU, 0x3d7193ba3e0e1aaaU,
  0xbd1c5087bcc6f220U, 0xbd9c50873d635ddcU, 0xbdb1a154bc8e1aaaU, 0xbd2a8665be7193baU,
  0xbcffc998bb635ddcU, 0xbdf8aea9be06ffbbU, 0x3e26f8ee3e11a821U, 0xbe46f220bd2a8665U,
  0x3df193ba3cffc998U, 0x3d1c5087bd635ddcU, 0x3d46f220be4e0d0fU, 0x3d635ddcbda36b76U,
  0x3de35ddc3d7193baU, 0xbd7193babe26f8eeU, 0x3d9535983d5527feU, 0xbdaa86653df193baU,
  0xbd635ddcbdb1a154U, 0x3da36b76bd8e1aaaU, 0xbc2a8665bd2a8665U, 0x3e0a8d32be837243U,
  0x3d86ffbb3daa8665U, 0xbd0e1aaabd0e1aaaU, 0xbd86ffbbbd953598U, 0xbdb1a1543d635ddcU,
  0xbddc42ed3d1c5087U, 0xbdb8bc43bdf193baU, 0x3c8e1aaabee19720U, 0x3d8e1aaa3d8e1aaaU,
  0x3e38bc433d9c5087U, 0x3e2e13dcbdea78cbU, 0x3c8e1aaabb635ddcU, 0x3e3fd7323d5527feU,
  0x3d5527febe635ddcU, 0xbdb8bc43bdf8aea9U, 0xbd8e1aaabc2a8665U, 0x3dce0d0fbd0e1aaaU,
  0xbda36b763d953598U, 0xbd8e1aaabce35ddcU, 0xbe2a86653d7fc998U, 0xbd9535983d5527feU,
  0xbdce0d0fbd2a8665U, 0x3b635ddcbd635ddcU, 0xbdaa8665be4e0d0fU, 0x3d7193ba3d1c5087U,
  0x3ce35ddcbdb1a154U, 0x3cc6f220be06ffbbU, 0x3e26f8ee3d953598U, 0x3b635ddc3d0e1aaaU,
  0x3c8e1aaabe98c310U, 0x3df8aea93d1c5087U, 0x3c8e1aaabd8e1aaaU, 0xbc2a8665be91a821U,
  0x3da36b76bdb1a154U, 0x3e4364a9U, 0xbe18c310bdaa8665U, 0xbdb1a154bd46f220U,
  0x3c2a8665bce35ddcU, 0x3e26f8eebe26f8eeU, 0xbce35ddcbeafda98U, 0xbce35ddc3b635ddcU,
  0xbcc6f220bdf8aea9U, 0xbc2a8665be0e1aaaU, 0x3e31a1543e11a821U, 0x3e2a86653d7fc998U,
  0xbd86ffbbbe91a821U, 0x3caa8665bd2a8665U, 0x3d1c5087bd2a8665U, 0x3d38bc43bd1c5087U,
  0x3d09eeb63e867bf1U, 0xbd9c52ce3d6f153bU, 0x3daa1de03d537f17U, 0x3d9c52ce3d09eeb6U,
  0x3e2584dabd00bcaaU, 0x3cdcb123bdc11affU, 0xbd537f173dea7c35U, 0x3daeb6e63e07a233U,
  0xbe17b9c8bd537f17U, 0x3cb7e8f23d9320c2U, 0x3c5cb123be37e8f2U, 0xbe0555b03e5a64a0U,
  0x3dfce04dbe91fa80U, 0xbe00bcaa3de5e32fU, 0x3dc5b4053cef153bU, 0xbca584dabd65e32fU,
  0x3e3103693e480088U, 0xbe2eb6e63e10d43fU, 0x3d9320c23dd37f17U, 0xbd09eeb6bdaeb6e6U,
  0x3cef153bbda0ebd4U, 0xbd09eeb6U, 0x3c1320c23d8e87bcU, 0x3d8e87bc3e1a064bU,
  0xbc5cb1233d537f17U, 0xbdcee611bc37e8f2U, 0xbd80bcaabe310369U, 0x3d6f153b3e5cb123U,
  0x3d8555b0be1c52ceU, 0xbe03092d3cca4d0bU, 0x3d37e8f2bd1320c2U, 0x3d4a4d0b3e2a1de0U,
  0x3e1a064bbb1320c2U, 0xbdb7e8f23df84747U, 0x3d1320c23ca584daU, 0x3d97b9c83d411affU,
  0x3db34fec3d537f17U, 0xbd8e87bc3df84747U, 0x3d9320c23d2584daU, 0xbdb34fec3d5cb123U,
  0xbe3c81f93cdcb123U, 0xbd411affbdbc81f9U, 0x3c1320c200000000U, 0xbda584da3d9320c2U,
  0xbb1320c2be1c52ceU, 0xbd9320c2bb1320c2U, 0xbc80bcaabd1320c2U, 0x3ca584da3df84747U,
  0x3c1320c2bcb7e8f2U, 0x3d1c52cebbdcb123U, 0xbd80bcaa3dea7c35U, 0x3d537f173b1320c2U,
  0x3d00bcaabc9320c2U, 0xbd2eb6e63dea7c35U, 0x3d2eb6e63e3a3576U, 0xbdd37f173d09eeb6U,
  0xbd537f17bd8555b0U, 0x3c37e8f2bdef153bU, 0xbdfce04dbe2c6a63U, 0x3dd37f173e4a4d0bU,
  0x3c1320c2bdef153bU, 0xbdf84747bb9320c2U, 0x3dcee6113d89eeb6U, 0x3c80bcaa3e20ebd4U,
  0xbcb7e8f23d784747U, 0xbdd8181d3e27d15dU, 0x3d537f17bdaa1de0U, 0x3ca584da3b1320c2U,
  0x3e00bcaabd2eb6e6U, 0x3dc11affbd65e32fU, 0x3e55cb9a3e27d15dU, 0xbd4a4d0b3d65e32fU,
  0x3df3ae413e00bcaaU, 0x3c80bcaabd97b9c8U, 0x3d537f17be45b405U, 0x3bdcb1233e4a4d0bU,
  0x3e3ece7cbd8555b0U, 0x3d9c52ceU, 0x3e4367823d8e87bcU, 0xbc1320c23ddcb123U,
